unsigned char model_tflite[] = {
 0x1c, 0x00, 0x00, 0x00, 0x54, 0x46, 0x4c, 0x33, 0x14, 0x00, 0x20, 0x00,
 0x1c, 0x00, 0x18, 0x00, 0x14, 0x00, 0x10, 0x00, 0x0c, 0x00, 0x00, 0x00,
 0x08, 0x00, 0x04, 0x00, 0x14, 0x00, 0x00, 0x00, 0x1c, 0x00, 0x00, 0x00,
 0x98, 0x00, 0x00, 0x00, 0xf0, 0x00, 0x00, 0x00, 0x94, 0x08, 0x00, 0x00,
 0xa4, 0x08, 0x00, 0x00, 0x8c, 0x0d, 0x00, 0x00, 0x03, 0x00, 0x00, 0x00,
 0x01, 0x00, 0x00, 0x00, 0x10, 0x00, 0x00, 0x00, 0x00, 0x00, 0x0a, 0x00,
 0x10, 0x00, 0x0c, 0x00, 0x08, 0x00, 0x04, 0x00, 0x0a, 0x00, 0x00, 0x00,
 0x0c, 0x00, 0x00, 0x00, 0x1c, 0x00, 0x00, 0x00, 0x3c, 0x00, 0x00, 0x00,
 0x0f, 0x00, 0x00, 0x00, 0x73, 0x65, 0x72, 0x76, 0x69, 0x6e, 0x67, 0x5f,
 0x64, 0x65, 0x66, 0x61, 0x75, 0x6c, 0x74, 0x00, 0x01, 0x00, 0x00, 0x00,
 0x04, 0x00, 0x00, 0x00, 0x90, 0xff, 0xff, 0xff, 0x09, 0x00, 0x00, 0x00,
 0x04, 0x00, 0x00, 0x00, 0x08, 0x00, 0x00, 0x00, 0x6f, 0x75, 0x74, 0x70,
 0x75, 0x74, 0x5f, 0x30, 0x00, 0x00, 0x00, 0x00, 0x01, 0x00, 0x00, 0x00,
 0x04, 0x00, 0x00, 0x00, 0x1a, 0xf8, 0xff, 0xff, 0x04, 0x00, 0x00, 0x00,
 0x0c, 0x00, 0x00, 0x00, 0x6b, 0x65, 0x72, 0x61, 0x73, 0x5f, 0x74, 0x65,
 0x6e, 0x73, 0x6f, 0x72, 0x00, 0x00, 0x00, 0x00, 0x02, 0x00, 0x00, 0x00,
 0x34, 0x00, 0x00, 0x00, 0x04, 0x00, 0x00, 0x00, 0xdc, 0xff, 0xff, 0xff,
 0x0c, 0x00, 0x00, 0x00, 0x04, 0x00, 0x00, 0x00, 0x13, 0x00, 0x00, 0x00,
 0x43, 0x4f, 0x4e, 0x56, 0x45, 0x52, 0x53, 0x49, 0x4f, 0x4e, 0x5f, 0x4d,
 0x45, 0x54, 0x41, 0x44, 0x41, 0x54, 0x41, 0x00, 0x08, 0x00, 0x0c, 0x00,
 0x08, 0x00, 0x04, 0x00, 0x08, 0x00, 0x00, 0x00, 0x0b, 0x00, 0x00, 0x00,
 0x04, 0x00, 0x00, 0x00, 0x13, 0x00, 0x00, 0x00, 0x6d, 0x69, 0x6e, 0x5f,
 0x72, 0x75, 0x6e, 0x74, 0x69, 0x6d, 0x65, 0x5f, 0x76, 0x65, 0x72, 0x73,
 0x69, 0x6f, 0x6e, 0x00, 0x0d, 0x00, 0x00, 0x00, 0xa0, 0x07, 0x00, 0x00,
 0x98, 0x07, 0x00, 0x00, 0x68, 0x07, 0x00, 0x00, 0x50, 0x05, 0x00, 0x00,
 0x3c, 0x05, 0x00, 0x00, 0x0c, 0x05, 0x00, 0x00, 0xbc, 0x04, 0x00, 0x00,
 0xac, 0x00, 0x00, 0x00, 0xa4, 0x00, 0x00, 0x00, 0x9c, 0x00, 0x00, 0x00,
 0x94, 0x00, 0x00, 0x00, 0x74, 0x00, 0x00, 0x00, 0x04, 0x00, 0x00, 0x00,
 0xca, 0xf8, 0xff, 0xff, 0x04, 0x00, 0x00, 0x00, 0x60, 0x00, 0x00, 0x00,
 0x10, 0x00, 0x00, 0x00, 0x00, 0x00, 0x00, 0x00, 0x08, 0x00, 0x0e, 0x00,
 0x08, 0x00, 0x04, 0x00, 0x08, 0x00, 0x00, 0x00, 0x10, 0x00, 0x00, 0x00,
 0x24, 0x00, 0x00, 0x00, 0x00, 0x00, 0x06, 0x00, 0x08, 0x00, 0x04, 0x00,
 0x06, 0x00, 0x00, 0x00, 0x04, 0x00, 0x00, 0x00, 0x00, 0x00, 0x00, 0x00,
 0x0c, 0x00, 0x18, 0x00, 0x14, 0x00, 0x10, 0x00, 0x0c, 0x00, 0x04, 0x00,
 0x0c, 0x00, 0x00, 0x00, 0x18, 0x25, 0x27, 0xee, 0xc1, 0xf7, 0xff, 0x86,
 0x02, 0x00, 0x00, 0x00, 0x02, 0x00, 0x00, 0x00, 0x04, 0x00, 0x00, 0x00,
 0x06, 0x00, 0x00, 0x00, 0x32, 0x2e, 0x31, 0x38, 0x2e, 0x30, 0x00, 0x00,
 0x36, 0xf9, 0xff, 0xff, 0x04, 0x00, 0x00, 0x00, 0x10, 0x00, 0x00, 0x00,
 0x31, 0x2e, 0x35, 0x2e, 0x30, 0x00, 0x00, 0x00, 0x00, 0x00, 0x00, 0x00,
 0x00, 0x00, 0x00, 0x00, 0x50, 0xf4, 0xff, 0xff, 0x54, 0xf4, 0xff, 0xff,
 0x58, 0xf4, 0xff, 0xff, 0x5e, 0xf9, 0xff, 0xff, 0x04, 0x00, 0x00, 0x00,
 0x00, 0x04, 0x00, 0x00, 0x37, 0x57, 0x9d, 0xbe, 0xa7, 0xc1, 0xbe, 0x3e,
 0x9e, 0x9f, 0x95, 0x3f, 0x8d, 0xd7, 0x1c, 0x3f, 0xa8, 0xc7, 0xec, 0xbd,
 0xca, 0xd5, 0x69, 0xbe, 0x88, 0xbc, 0x28, 0xbe, 0x05, 0xcd, 0xc0, 0x3e,
 0x08, 0xde, 0xb0, 0x3f, 0x46, 0xc0, 0x35, 0x3e, 0xac, 0x7d, 0x6a, 0x3f,
 0xaa, 0xa9, 0x05, 0x3e, 0x7c, 0x6c, 0x00, 0x3f, 0x78, 0x50, 0x13, 0xbd,
 0xfa, 0x5a, 0x28, 0x3e, 0x27, 0x2d, 0x22, 0xbd, 0x97, 0x8d, 0x12, 0xbf,
 0x00, 0xe7, 0xdd, 0x3b, 0x7d, 0x2f, 0x97, 0x3f, 0x15, 0x88, 0x8e, 0x3f,
 0x2d, 0xa5, 0xbe, 0x3e, 0x82, 0xdb, 0xc5, 0xbd, 0xe8, 0x6e, 0x6f, 0x3d,
 0x76, 0x56, 0x41, 0x3e, 0x4e, 0xa6, 0xae, 0x3f, 0x1a, 0x68, 0x69, 0x3e,
 0x8c, 0xb1, 0x9b, 0x3f, 0x7c, 0xae, 0xf1, 0x3d, 0x23, 0xbb, 0x25, 0x3f,
 0x98, 0xd8, 0x15, 0xbe, 0xa0, 0xe1, 0x50, 0xbc, 0x0a, 0x91, 0xd0, 0x3e,
 0x28, 0xe0, 0xf4, 0xbe, 0xe7, 0x63, 0xab, 0x3e, 0x71, 0xef, 0x93, 0x3e,
 0x3b, 0x31, 0x98, 0x3e, 0x9c, 0x74, 0x2d, 0xbe, 0xbd, 0x1c, 0x07, 0x3e,
 0xfa, 0x57, 0x44, 0x3e, 0x28, 0x53, 0xae, 0xbe, 0x04, 0x2f, 0x26, 0xbd,
 0xf4, 0xc6, 0xba, 0xbe, 0x1b, 0x70, 0x87, 0xbe, 0xa7, 0xdf, 0xca, 0x3e,
 0x51, 0x36, 0xf6, 0xbe, 0xc0, 0xdc, 0x69, 0x3c, 0xd2, 0xa0, 0x90, 0xbe,
 0xda, 0x5f, 0x2a, 0xbe, 0x81, 0xbf, 0x2b, 0xbf, 0x60, 0xab, 0xca, 0xbc,
 0x86, 0x7d, 0x49, 0x3f, 0xdc, 0x99, 0x86, 0x3f, 0xe8, 0xe4, 0xd3, 0xbe,
 0x7f, 0xe6, 0xa4, 0x3a, 0x00, 0xa8, 0x5a, 0xb9, 0xe8, 0x8d, 0x8e, 0xbe,
 0xa5, 0x2d, 0x9c, 0x3f, 0x88, 0x12, 0x05, 0xbd, 0x64, 0x29, 0x37, 0x3f,
 0x40, 0x37, 0xdc, 0x3c, 0x89, 0x21, 0x02, 0x3f, 0x57, 0xe4, 0xac, 0x3e,
 0xc1, 0x7c, 0xb9, 0xbe, 0xca, 0xdf, 0xd3, 0x3e, 0x5d, 0x6d, 0x10, 0xbd,
 0x19, 0x14, 0xdd, 0xbe, 0xab, 0x05, 0x86, 0x3f, 0x75, 0x7f, 0x26, 0x3f,
 0xf0, 0x9b, 0x9b, 0xbe, 0xca, 0x8b, 0xc3, 0x3e, 0x17, 0x8f, 0xce, 0xbe,
 0x54, 0xdc, 0x97, 0xbe, 0x61, 0x5c, 0x98, 0x3f, 0x4f, 0x14, 0x8c, 0x3e,
 0xfa, 0x16, 0x74, 0x3f, 0xe0, 0xbd, 0x44, 0xbd, 0x15, 0x03, 0x90, 0x3f,
 0x76, 0xe6, 0x2d, 0x3e, 0x82, 0x6d, 0x67, 0x3e, 0xca, 0xec, 0xb0, 0x3d,
 0x56, 0xe7, 0xec, 0xbe, 0xea, 0x9a, 0xa4, 0xbe, 0x7f, 0xce, 0xa7, 0x3f,
 0x82, 0xcb, 0xb9, 0x3f, 0x10, 0x2b, 0x8a, 0xbe, 0x0e, 0x9b, 0x8a, 0xbe,
 0xbc, 0xb6, 0x99, 0x3d, 0x8f, 0xc6, 0xa8, 0x3e, 0xb1, 0x91, 0x82, 0x3f,
 0x22, 0xb7, 0x3e, 0x3e, 0x25, 0x8a, 0x8d, 0x3f, 0x38, 0xed, 0x24, 0xbd,
 0x0f, 0x6c, 0x3e, 0x3f, 0x32, 0xcf, 0x34, 0x3e, 0xa4, 0x1a, 0xf6, 0xbd,
 0x00, 0x7d, 0x76, 0x3e, 0xd8, 0x67, 0x37, 0xbf, 0x31, 0xf4, 0x91, 0xbe,
 0xec, 0x3b, 0x34, 0x3f, 0x3f, 0xd8, 0x20, 0x3f, 0xea, 0xf3, 0x23, 0x3e,
 0x01, 0xce, 0x9f, 0x3c, 0x25, 0x41, 0x40, 0xbe, 0x3e, 0x36, 0x38, 0x3e,
 0x96, 0x64, 0x66, 0x3f, 0x6c, 0x6d, 0xac, 0xbe, 0x10, 0x98, 0x82, 0x3f,
 0x93, 0xff, 0x8c, 0x3e, 0x30, 0xac, 0x7e, 0x3f, 0xfe, 0x65, 0x76, 0x3e,
 0xb9, 0xef, 0xcc, 0xbe, 0xb0, 0x01, 0x9d, 0x3e, 0x17, 0xc5, 0x20, 0xbf,
 0x69, 0x04, 0xd4, 0xbe, 0xe9, 0xb3, 0x70, 0x3f, 0x59, 0xf3, 0x1a, 0x3f,
 0x4f, 0xae, 0x92, 0x3e, 0xcb, 0xda, 0x91, 0xbd, 0x08, 0x42, 0x0b, 0x3d,
 0x85, 0x5e, 0x97, 0x3e, 0xa8, 0x38, 0x73, 0x3f, 0x7d, 0x26, 0x8a, 0xbe,
 0xec, 0x36, 0x7d, 0x3f, 0xb2, 0x6a, 0xa5, 0xbe, 0x8f, 0xaf, 0x5c, 0x3f,
 0xfd, 0xd7, 0xa7, 0x3e, 0x26, 0x71, 0x6b, 0xbe, 0x8b, 0x8f, 0x00, 0x3f,
 0x61, 0x0e, 0xa5, 0xbe, 0x4b, 0x43, 0xda, 0x3e, 0xf9, 0x07, 0x55, 0xbe,
 0x67, 0x28, 0x86, 0x3e, 0x2c, 0x69, 0xc5, 0x3d, 0x04, 0xfa, 0x53, 0xbe,
 0x32, 0xd1, 0x51, 0x3e, 0xc0, 0xed, 0x07, 0xbc, 0x72, 0x32, 0xa8, 0xbe,
 0xfe, 0x39, 0x5e, 0xbe, 0xe0, 0x6f, 0xbc, 0xbe, 0x1a, 0x44, 0x3f, 0xbe,
 0x94, 0xb8, 0x91, 0xbd, 0xb2, 0x34, 0x15, 0x3e, 0x46, 0xf5, 0x7e, 0x3e,
 0xac, 0x00, 0x98, 0xbe, 0xf1, 0x31, 0xd5, 0xbe, 0xb6, 0xb9, 0x33, 0x3e,
 0xe2, 0x1e, 0xb0, 0x3f, 0xeb, 0x13, 0x26, 0x3f, 0x60, 0x58, 0x4d, 0xbd,
 0xc3, 0xf2, 0xb0, 0x3d, 0xab, 0xdd, 0xd0, 0x3e, 0x93, 0x3a, 0x8e, 0x3e,
 0x90, 0xe1, 0x39, 0x3f, 0x99, 0x01, 0x87, 0xbe, 0x13, 0x0e, 0x9d, 0x3f,
 0x4c, 0x52, 0xd7, 0x3d, 0xca, 0x83, 0x9e, 0x3f, 0x14, 0x31, 0x8d, 0xbd,
 0x32, 0x08, 0x19, 0x3e, 0x40, 0x6b, 0x9f, 0xbd, 0xed, 0xb5, 0x08, 0xbf,
 0xac, 0x3b, 0xda, 0xbd, 0x9a, 0xda, 0x5f, 0x3f, 0x1c, 0xc0, 0xab, 0x3f,
 0x0a, 0x58, 0x12, 0x3e, 0xa9, 0x25, 0x12, 0xbe, 0x28, 0xf3, 0xbc, 0xbe,
 0x3c, 0x2d, 0xdb, 0x3d, 0x8c, 0x0e, 0xab, 0x3f, 0x54, 0x4f, 0xf4, 0xbd,
 0x93, 0x01, 0x2a, 0x3f, 0x9c, 0x20, 0x86, 0xbd, 0xc5, 0xcf, 0x42, 0x3f,
 0xf9, 0x82, 0xab, 0x3e, 0xb9, 0xea, 0x87, 0x3e, 0x24, 0x22, 0x36, 0xbe,
 0x2b, 0x70, 0x33, 0xbe, 0x58, 0x9c, 0x62, 0x3d, 0x6c, 0x4e, 0x90, 0x3f,
 0xcd, 0x50, 0x89, 0x3f, 0xeb, 0x0e, 0xaf, 0x3e, 0x62, 0x3b, 0x8c, 0x3e,
 0x49, 0xff, 0xa3, 0x3e, 0xc6, 0xff, 0x10, 0xbe, 0x04, 0xf2, 0xa5, 0x3f,
 0x74, 0xf7, 0xe0, 0xbd, 0x30, 0x6a, 0xa4, 0x3f, 0x1d, 0x75, 0x4c, 0xbe,
 0x0f, 0x95, 0x73, 0x3f, 0x62, 0x93, 0xd9, 0xbe, 0xe9, 0x34, 0xd7, 0x3e,
 0x52, 0x8e, 0x27, 0xbe, 0x5e, 0xef, 0x85, 0xbe, 0xd6, 0x54, 0x0d, 0xbe,
 0x27, 0xd6, 0x7b, 0xbe, 0xcc, 0xd2, 0x8f, 0x3d, 0x10, 0xe6, 0xee, 0xbd,
 0xee, 0x7b, 0xc4, 0xbe, 0x40, 0x28, 0x07, 0x3c, 0xf7, 0x5d, 0xb8, 0x3e,
 0xa0, 0x33, 0x95, 0x3c, 0x00, 0x85, 0x9f, 0xbc, 0x3e, 0x3e, 0x3a, 0xbe,
 0xa4, 0x6f, 0xc3, 0x3d, 0x7b, 0xf9, 0xa8, 0xbe, 0xd4, 0x07, 0xc9, 0xbd,
 0xa0, 0x0c, 0xd4, 0xbc, 0xb8, 0x05, 0x90, 0xbe, 0x0c, 0x39, 0xaa, 0xbd,
 0xa8, 0xf6, 0xb6, 0xbe, 0xad, 0x55, 0xc6, 0x3e, 0x06, 0x4f, 0x54, 0x3e,
 0x38, 0x0f, 0x98, 0xbe, 0xad, 0x92, 0xdb, 0xbe, 0xa2, 0xbe, 0xcf, 0xbe,
 0x85, 0x41, 0xb3, 0x3e, 0x2e, 0x4d, 0xd1, 0xbe, 0xeb, 0x3b, 0x6e, 0xbe,
 0x5e, 0x80, 0xc1, 0xbe, 0xa8, 0x57, 0xa3, 0xbd, 0x6c, 0x21, 0xc0, 0x3d,
 0x32, 0x83, 0x3e, 0x3e, 0x39, 0x38, 0x8e, 0x3e, 0x8c, 0x57, 0x23, 0xbe,
 0x97, 0x50, 0x12, 0xbf, 0x3a, 0x74, 0xb6, 0xbe, 0x25, 0x4c, 0x85, 0x3f,
 0xbf, 0x62, 0x29, 0x3f, 0x54, 0x50, 0x80, 0xbe, 0x53, 0xb8, 0xa1, 0x3c,
 0x96, 0x6f, 0xdd, 0xbe, 0xdc, 0x52, 0x90, 0xbd, 0x05, 0x06, 0x67, 0x3f,
 0x8e, 0x7f, 0x82, 0xbe, 0x8d, 0xfb, 0xdd, 0x3e, 0xd0, 0x1c, 0xf9, 0xbd,
 0x66, 0x00, 0xa1, 0x3e, 0x30, 0x9b, 0xb1, 0xbe, 0x4c, 0x9a, 0xb2, 0xbd,
 0x48, 0xb1, 0xf1, 0x3d, 0xa2, 0xd0, 0x03, 0xbf, 0x92, 0x12, 0x3a, 0x3e,
 0x1d, 0x4f, 0x7a, 0x3f, 0x05, 0x00, 0x86, 0x3f, 0x4b, 0xf2, 0xb5, 0x3e,
 0x37, 0x02, 0x64, 0xbe, 0x73, 0x44, 0x7a, 0xbe, 0x80, 0xeb, 0x47, 0x3d,
 0xb7, 0x66, 0x70, 0x3e, 0xe4, 0x99, 0xb1, 0x3d, 0xb3, 0x57, 0xf0, 0x3e,
 0x2f, 0x6d, 0xc7, 0xbe, 0xd5, 0x03, 0x4e, 0x3f, 0x94, 0xa0, 0x69, 0xbe,
 0x8e, 0x7f, 0x42, 0x3e, 0x95, 0x32, 0x15, 0xbe, 0x6a, 0xfd, 0xff, 0xff,
 0x04, 0x00, 0x00, 0x00, 0x40, 0x00, 0x00, 0x00, 0x96, 0x19, 0x75, 0x3f,
 0x09, 0x22, 0x7e, 0x3f, 0x13, 0xde, 0xc0, 0xbd, 0x33, 0x5b, 0x83, 0x3f,
 0x34, 0xc1, 0x70, 0x3f, 0x80, 0x92, 0x77, 0x3f, 0x90, 0x04, 0x7b, 0x3f,
 0xfc, 0x4c, 0x81, 0x3f, 0x00, 0x00, 0x00, 0x00, 0x06, 0xf1, 0x76, 0x3f,
 0xb7, 0x39, 0x74, 0x3f, 0x83, 0x6b, 0x65, 0x3f, 0x00, 0x00, 0x00, 0x00,
 0x00, 0x00, 0x00, 0x00, 0xd5, 0xcf, 0x2d, 0x3f, 0x9f, 0xfe, 0x20, 0x3f,
 0xb6, 0xfd, 0xff, 0xff, 0x04, 0x00, 0x00, 0x00, 0x20, 0x00, 0x00, 0x00,
 0x13, 0xad, 0x5f, 0x3f, 0xce, 0xfd, 0x59, 0x3f, 0xdf, 0x6a, 0x49, 0x3f,
 0x4c, 0x3f, 0x32, 0xbd, 0xcb, 0xc1, 0x5f, 0xbd, 0xf4, 0x1a, 0x7e, 0xbd,
 0x5f, 0xe2, 0x97, 0xbd, 0x00, 0x00, 0x00, 0x00, 0xe2, 0xfd, 0xff, 0xff,
 0x04, 0x00, 0x00, 0x00, 0x04, 0x00, 0x00, 0x00, 0xbf, 0x04, 0x23, 0x3f,
 0xf2, 0xfd, 0xff, 0xff, 0x04, 0x00, 0x00, 0x00, 0x00, 0x02, 0x00, 0x00,
 0x24, 0x59, 0x65, 0x3f, 0x49, 0x39, 0xc4, 0x3f, 0xfc, 0x41, 0x2b, 0x3e,
 0x06, 0x2d, 0xba, 0x3f, 0xbd, 0x24, 0x20, 0x3f, 0x36, 0xac, 0x8a, 0x3f,
 0x25, 0x8c, 0x76, 0x3f, 0xd6, 0x89, 0xbc, 0x3f, 0x84, 0xc0, 0xef, 0xbe,
 0x59, 0x3b, 0xb5, 0x3f, 0xc6, 0x1b, 0x93, 0x3f, 0xb1, 0xbb, 0xad, 0x3f,
 0xec, 0xc8, 0xaa, 0x3e, 0xa4, 0x92, 0x95, 0xbe, 0x75, 0xdc, 0x62, 0x3f,
 0xe2, 0x99, 0x0a, 0x3f, 0x01, 0x2e, 0xbe, 0x3f, 0x8b, 0x49, 0x3e, 0x3f,
 0xd3, 0x72, 0xa0, 0xbe, 0x1f, 0x3d, 0x9d, 0x3f, 0xc4, 0x4a, 0x93, 0x3f,
 0x23, 0x31, 0xa1, 0x3f, 0x67, 0xfb, 0x94, 0x3f, 0xab, 0x10, 0xae, 0x3f,
 0xc8, 0xba, 0xc4, 0x3e, 0xc7, 0xed, 0x89, 0x3f, 0xd8, 0xfb, 0x5f, 0x3f,
 0xd2, 0xec, 0x54, 0x3f, 0xf0, 0xd2, 0x4d, 0x3e, 0xa0, 0xce, 0xf2, 0x3d,
 0x1e, 0x80, 0x56, 0x3f, 0xd6, 0x83, 0x51, 0x3f, 0xae, 0x71, 0x7e, 0x3e,
 0x7b, 0x5f, 0x99, 0x3e, 0x42, 0xdc, 0x5d, 0xbe, 0x24, 0xc7, 0x8a, 0x3f,
 0x38, 0xcd, 0x27, 0x3f, 0x11, 0xef, 0x83, 0x3f, 0x5b, 0x09, 0xd1, 0x3e,
 0xb7, 0x7c, 0x83, 0x3f, 0xc0, 0xb6, 0x59, 0x3d, 0x6d, 0x87, 0x8b, 0x3f,
 0x1e, 0x4e, 0x9b, 0x3f, 0xad, 0xef, 0x44, 0x3e, 0xf0, 0x20, 0x29, 0x3e,
 0x28, 0x6d, 0xb2, 0x3e, 0xee, 0xdd, 0x52, 0x3f, 0x2c, 0xda, 0xab, 0x3e,
 0x07, 0x59, 0xdd, 0xbe, 0x87, 0x49, 0x2b, 0x3e, 0x2e, 0x63, 0x7f, 0xbe,
 0x18, 0xdf, 0x44, 0x3e, 0x5d, 0x62, 0xdb, 0xbe, 0xe5, 0xe1, 0xb5, 0xbd,
 0xad, 0x21, 0x17, 0xbe, 0x80, 0x5b, 0xd2, 0xbe, 0xf8, 0xb2, 0x5b, 0xbe,
 0x6f, 0x86, 0xd6, 0x3e, 0x9c, 0xf0, 0xdc, 0xbe, 0x2e, 0xcf, 0x42, 0x3e,
 0x84, 0x70, 0xe6, 0xbe, 0xac, 0x3f, 0xb1, 0xbe, 0x02, 0xdf, 0x8d, 0x3e,
 0x34, 0x69, 0x52, 0xbe, 0x6b, 0x70, 0x96, 0xbe, 0x66, 0x1d, 0x8a, 0x3e,
 0xef, 0xdd, 0x47, 0x3d, 0x1f, 0x6b, 0xa4, 0x3e, 0x05, 0x49, 0x82, 0x3e,
 0x56, 0x42, 0x52, 0xbe, 0xdf, 0xf3, 0x3b, 0xbe, 0xb0, 0xf9, 0xa4, 0xbd,
 0xd8, 0xc4, 0x3d, 0xbe, 0xb1, 0xee, 0x55, 0xbe, 0x6c, 0x5d, 0x59, 0x3e,
 0x78, 0x9f, 0xbf, 0xbe, 0x10, 0x68, 0x0e, 0x3e, 0x30, 0x71, 0x96, 0x3d,
 0x5d, 0x3a, 0xda, 0x3e, 0x94, 0x16, 0x02, 0xbf, 0x12, 0x96, 0x8e, 0xbe,
 0xaf, 0x00, 0x73, 0xbe, 0xc3, 0xcd, 0xe7, 0x3e, 0x10, 0x62, 0x26, 0x3e,
 0xd8, 0x04, 0xbe, 0xbd, 0x9b, 0x90, 0x41, 0xbe, 0x6b, 0xaa, 0xa8, 0xbe,
 0x41, 0x96, 0xd0, 0xbe, 0xec, 0x18, 0xff, 0xbe, 0x98, 0xf6, 0xc3, 0xbe,
 0xeb, 0x73, 0x7a, 0xbe, 0x09, 0xf4, 0xd4, 0x3e, 0xdc, 0x83, 0x8b, 0xbe,
 0x48, 0x9f, 0x94, 0xbe, 0x02, 0x7a, 0xda, 0x3d, 0x08, 0x4a, 0xc3, 0x3e,
 0x48, 0xb5, 0xed, 0xbd, 0xef, 0x3a, 0xba, 0x3d, 0xa6, 0xf8, 0xc6, 0x3b,
 0xe2, 0xbc, 0xcb, 0xbe, 0xf5, 0xf5, 0x21, 0x3e, 0xf1, 0x2d, 0xa0, 0x3e,
 0x8d, 0x93, 0xd2, 0xbe, 0x10, 0xc2, 0x81, 0xbe, 0x50, 0xa4, 0xa6, 0xbd,
 0x2d, 0x16, 0x96, 0xbe, 0x6c, 0xbd, 0x50, 0x3e, 0x6a, 0x71, 0x39, 0x3d,
 0xfc, 0x44, 0x90, 0x3e, 0x50, 0x0d, 0x92, 0xbe, 0xb1, 0x4c, 0xb9, 0x3e,
 0x71, 0x47, 0xd8, 0x3e, 0x00, 0x30, 0x9f, 0x3d, 0xf0, 0x32, 0xa8, 0xbe,
 0x00, 0x04, 0xe3, 0xbd, 0xe0, 0xea, 0xed, 0xbd, 0x30, 0xc1, 0x96, 0x3e,
 0x10, 0x33, 0x41, 0x3e, 0xc0, 0x69, 0x91, 0xbd, 0x38, 0x7e, 0xd0, 0x3e,
 0xf0, 0x75, 0x7d, 0xbe, 0x10, 0x42, 0xe3, 0xbe, 0x40, 0xf8, 0xb0, 0xbd,
 0x5c, 0xed, 0xa4, 0xbe, 0xc4, 0x31, 0xfe, 0xbe, 0x80, 0x2f, 0x38, 0x3e,
 0x4c, 0xa4, 0x8b, 0xbe, 0x80, 0x2a, 0xea, 0x3c, 0x00, 0x00, 0x06, 0x00,
 0x08, 0x00, 0x04, 0x00, 0x06, 0x00, 0x00, 0x00, 0x04, 0x00, 0x00, 0x00,
 0x20, 0x00, 0x00, 0x00, 0xc7, 0x14, 0x99, 0x3f, 0x71, 0x81, 0xa5, 0x3f,
 0x70, 0x3d, 0x34, 0x3f, 0xfa, 0xdc, 0x86, 0xbd, 0x88, 0x71, 0x78, 0xbe,
 0x00, 0x7f, 0xd7, 0xbe, 0xc6, 0xee, 0x2e, 0xbf, 0x80, 0xce, 0xb3, 0x3e,
 0x30, 0xfb, 0xff, 0xff, 0x34, 0xfb, 0xff, 0xff, 0x0f, 0x00, 0x00, 0x00,
 0x4d, 0x4c, 0x49, 0x52, 0x20, 0x43, 0x6f, 0x6e, 0x76, 0x65, 0x72, 0x74,
 0x65, 0x64, 0x2e, 0x00, 0x01, 0x00, 0x00, 0x00, 0x14, 0x00, 0x00, 0x00,
 0x00, 0x00, 0x0e, 0x00, 0x18, 0x00, 0x14, 0x00, 0x10, 0x00, 0x0c, 0x00,
 0x08, 0x00, 0x04, 0x00, 0x0e, 0x00, 0x00, 0x00, 0x14, 0x00, 0x00, 0x00,
 0x1c, 0x00, 0x00, 0x00, 0xd8, 0x00, 0x00, 0x00, 0xdc, 0x00, 0x00, 0x00,
 0xe0, 0x00, 0x00, 0x00, 0x04, 0x00, 0x00, 0x00, 0x6d, 0x61, 0x69, 0x6e,
 0x00, 0x00, 0x00, 0x00, 0x03, 0x00, 0x00, 0x00, 0x80, 0x00, 0x00, 0x00,
 0x38, 0x00, 0x00, 0x00, 0x04, 0x00, 0x00, 0x00, 0x9a, 0xff, 0xff, 0xff,
 0x10, 0x00, 0x00, 0x00, 0x00, 0x00, 0x00, 0x08, 0x0c, 0x00, 0x00, 0x00,
 0x10, 0x00, 0x00, 0x00, 0xac, 0xfb, 0xff, 0xff, 0x01, 0x00, 0x00, 0x00,
 0x09, 0x00, 0x00, 0x00, 0x03, 0x00, 0x00, 0x00, 0x08, 0x00, 0x00, 0x00,
 0x01, 0x00, 0x00, 0x00, 0x03, 0x00, 0x00, 0x00, 0xca, 0xff, 0xff, 0xff,
 0x10, 0x00, 0x00, 0x00, 0x00, 0x00, 0x00, 0x08, 0x10, 0x00, 0x00, 0x00,
 0x14, 0x00, 0x00, 0x00, 0xba, 0xff, 0xff, 0xff, 0x00, 0x00, 0x00, 0x01,
 0x01, 0x00, 0x00, 0x00, 0x08, 0x00, 0x00, 0x00, 0x03, 0x00, 0x00, 0x00,
 0x07, 0x00, 0x00, 0x00, 0x02, 0x00, 0x00, 0x00, 0x04, 0x00, 0x00, 0x00,
 0x00, 0x00, 0x0e, 0x00, 0x16, 0x00, 0x00, 0x00, 0x10, 0x00, 0x0c, 0x00,
 0x0b, 0x00, 0x04, 0x00, 0x0e, 0x00, 0x00, 0x00, 0x18, 0x00, 0x00, 0x00,
 0x00, 0x00, 0x00, 0x08, 0x18, 0x00, 0x00, 0x00, 0x1c, 0x00, 0x00, 0x00,
 0x00, 0x00, 0x06, 0x00, 0x08, 0x00, 0x07, 0x00, 0x06, 0x00, 0x00, 0x00,
 0x00, 0x00, 0x00, 0x01, 0x01, 0x00, 0x00, 0x00, 0x07, 0x00, 0x00, 0x00,
 0x03, 0x00, 0x00, 0x00, 0x00, 0x00, 0x00, 0x00, 0x06, 0x00, 0x00, 0x00,
 0x05, 0x00, 0x00, 0x00, 0x01, 0x00, 0x00, 0x00, 0x09, 0x00, 0x00, 0x00,
 0x01, 0x00, 0x00, 0x00, 0x00, 0x00, 0x00, 0x00, 0x0a, 0x00, 0x00, 0x00,
 0x7c, 0x03, 0x00, 0x00, 0x24, 0x03, 0x00, 0x00, 0xcc, 0x02, 0x00, 0x00,
 0x90, 0x02, 0x00, 0x00, 0x34, 0x02, 0x00, 0x00, 0xdc, 0x01, 0x00, 0x00,
 0x90, 0x01, 0x00, 0x00, 0xfc, 0x00, 0x00, 0x00, 0x60, 0x00, 0x00, 0x00,
 0x04, 0x00, 0x00, 0x00, 0xc2, 0xfc, 0xff, 0xff, 0x00, 0x00, 0x00, 0x01,
 0x14, 0x00, 0x00, 0x00, 0x1c, 0x00, 0x00, 0x00, 0x1c, 0x00, 0x00, 0x00,
 0x0a, 0x00, 0x00, 0x00, 0x34, 0x00, 0x00, 0x00, 0x02, 0x00, 0x00, 0x00,
 0xff, 0xff, 0xff, 0xff, 0x01, 0x00, 0x00, 0x00, 0xac, 0xfc, 0xff, 0xff,
 0x1b, 0x00, 0x00, 0x00, 0x53, 0x74, 0x61, 0x74, 0x65, 0x66, 0x75, 0x6c,
 0x50, 0x61, 0x72, 0x74, 0x69, 0x74, 0x69, 0x6f, 0x6e, 0x65, 0x64, 0x43,
 0x61, 0x6c, 0x6c, 0x5f, 0x31, 0x3a, 0x30, 0x00, 0x02, 0x00, 0x00, 0x00,
 0x01, 0x00, 0x00, 0x00, 0x01, 0x00, 0x00, 0x00, 0x1a, 0xfd, 0xff, 0xff,
 0x00, 0x00, 0x00, 0x01, 0x14, 0x00, 0x00, 0x00, 0x1c, 0x00, 0x00, 0x00,
 0x1c, 0x00, 0x00, 0x00, 0x09, 0x00, 0x00, 0x00, 0x74, 0x00, 0x00, 0x00,
 0x02, 0x00, 0x00, 0x00, 0xff, 0xff, 0xff, 0xff, 0x08, 0x00, 0x00, 0x00,
 0x04, 0xfd, 0xff, 0xff, 0x58, 0x00, 0x00, 0x00, 0x73, 0x65, 0x71, 0x75,
 0x65, 0x6e, 0x74, 0x69, 0x61, 0x6c, 0x5f, 0x31, 0x2f, 0x64, 0x65, 0x6e,
 0x73, 0x65, 0x5f, 0x31, 0x5f, 0x32, 0x2f, 0x4d, 0x61, 0x74, 0x4d, 0x75,
 0x6c, 0x3b, 0x73, 0x65, 0x71, 0x75, 0x65, 0x6e, 0x74, 0x69, 0x61, 0x6c,
 0x5f, 0x31, 0x2f, 0x64, 0x65, 0x6e, 0x73, 0x65, 0x5f, 0x31, 0x5f, 0x32,
 0x2f, 0x52, 0x65, 0x6c, 0x75, 0x3b, 0x73, 0x65, 0x71, 0x75, 0x65, 0x6e,
 0x74, 0x69, 0x61, 0x6c, 0x5f, 0x31, 0x2f, 0x64, 0x65, 0x6e, 0x73, 0x65,
 0x5f, 0x31, 0x5f, 0x32, 0x2f, 0x42, 0x69, 0x61, 0x73, 0x41, 0x64, 0x64,
 0x00, 0x00, 0x00, 0x00, 0x02, 0x00, 0x00, 0x00, 0x01, 0x00, 0x00, 0x00,
 0x08, 0x00, 0x00, 0x00, 0xb2, 0xfd, 0xff, 0xff, 0x00, 0x00, 0x00, 0x01,
 0x14, 0x00, 0x00, 0x00, 0x1c, 0x00, 0x00, 0x00, 0x1c, 0x00, 0x00, 0x00,
 0x08, 0x00, 0x00, 0x00, 0x6c, 0x00, 0x00, 0x00, 0x02, 0x00, 0x00, 0x00,
 0xff, 0xff, 0xff, 0xff, 0x10, 0x00, 0x00, 0x00, 0x9c, 0xfd, 0xff, 0xff,
 0x52, 0x00, 0x00, 0x00, 0x73, 0x65, 0x71, 0x75, 0x65, 0x6e, 0x74, 0x69,
 0x61, 0x6c, 0x5f, 0x31, 0x2f, 0x64, 0x65, 0x6e, 0x73, 0x65, 0x5f, 0x31,
 0x2f, 0x4d, 0x61, 0x74, 0x4d, 0x75, 0x6c, 0x3b, 0x73, 0x65, 0x71, 0x75,
 0x65, 0x6e, 0x74, 0x69, 0x61, 0x6c, 0x5f, 0x31, 0x2f, 0x64, 0x65, 0x6e,
 0x73, 0x65, 0x5f, 0x31, 0x2f, 0x52, 0x65, 0x6c, 0x75, 0x3b, 0x73, 0x65,
 0x71, 0x75, 0x65, 0x6e, 0x74, 0x69, 0x61, 0x6c, 0x5f, 0x31, 0x2f, 0x64,
 0x65, 0x6e, 0x73, 0x65, 0x5f, 0x31, 0x2f, 0x42, 0x69, 0x61, 0x73, 0x41,
 0x64, 0x64, 0x00, 0x00, 0x02, 0x00, 0x00, 0x00, 0x01, 0x00, 0x00, 0x00,
 0x10, 0x00, 0x00, 0x00, 0x96, 0xfe, 0xff, 0xff, 0x00, 0x00, 0x00, 0x01,
 0x10, 0x00, 0x00, 0x00, 0x10, 0x00, 0x00, 0x00, 0x07, 0x00, 0x00, 0x00,
 0x28, 0x00, 0x00, 0x00, 0x1c, 0xfe, 0xff, 0xff, 0x1b, 0x00, 0x00, 0x00,
 0x73, 0x65, 0x71, 0x75, 0x65, 0x6e, 0x74, 0x69, 0x61, 0x6c, 0x5f, 0x31,
 0x2f, 0x64, 0x65, 0x6e, 0x73, 0x65, 0x5f, 0x31, 0x2f, 0x4d, 0x61, 0x74,
 0x4d, 0x75, 0x6c, 0x00, 0x02, 0x00, 0x00, 0x00, 0x10, 0x00, 0x00, 0x00,
 0x10, 0x00, 0x00, 0x00, 0xde, 0xfe, 0xff, 0xff, 0x00, 0x00, 0x00, 0x01,
 0x10, 0x00, 0x00, 0x00, 0x10, 0x00, 0x00, 0x00, 0x06, 0x00, 0x00, 0x00,
 0x38, 0x00, 0x00, 0x00, 0x64, 0xfe, 0xff, 0xff, 0x2b, 0x00, 0x00, 0x00,
 0x73, 0x65, 0x71, 0x75, 0x65, 0x6e, 0x74, 0x69, 0x61, 0x6c, 0x5f, 0x31,
 0x2f, 0x64, 0x65, 0x6e, 0x73, 0x65, 0x5f, 0x31, 0x2f, 0x42, 0x69, 0x61,
 0x73, 0x41, 0x64, 0x64, 0x2f, 0x52, 0x65, 0x61, 0x64, 0x56, 0x61, 0x72,
 0x69, 0x61, 0x62, 0x6c, 0x65, 0x4f, 0x70, 0x00, 0x01, 0x00, 0x00, 0x00,
 0x10, 0x00, 0x00, 0x00, 0x32, 0xff, 0xff, 0xff, 0x00, 0x00, 0x00, 0x01,
 0x10, 0x00, 0x00, 0x00, 0x10, 0x00, 0x00, 0x00, 0x05, 0x00, 0x00, 0x00,
 0x3c, 0x00, 0x00, 0x00, 0xb8, 0xfe, 0xff, 0xff, 0x2d, 0x00, 0x00, 0x00,
 0x73, 0x65, 0x71, 0x75, 0x65, 0x6e, 0x74, 0x69, 0x61, 0x6c, 0x5f, 0x31,
 0x2f, 0x64, 0x65, 0x6e, 0x73, 0x65, 0x5f, 0x31, 0x5f, 0x32, 0x2f, 0x42,
 0x69, 0x61, 0x73, 0x41, 0x64, 0x64, 0x2f, 0x52, 0x65, 0x61, 0x64, 0x56,
 0x61, 0x72, 0x69, 0x61, 0x62, 0x6c, 0x65, 0x4f, 0x70, 0x00, 0x00, 0x00,
 0x01, 0x00, 0x00, 0x00, 0x08, 0x00, 0x00, 0x00, 0x8a, 0xff, 0xff, 0xff,
 0x00, 0x00, 0x00, 0x01, 0x10, 0x00, 0x00, 0x00, 0x10, 0x00, 0x00, 0x00,
 0x04, 0x00, 0x00, 0x00, 0x1c, 0x00, 0x00, 0x00, 0x10, 0xff, 0xff, 0xff,
 0x0f, 0x00, 0x00, 0x00, 0x61, 0x72, 0x69, 0x74, 0x68, 0x2e, 0x63, 0x6f,
 0x6e, 0x73, 0x74, 0x61, 0x6e, 0x74, 0x32, 0x00, 0x01, 0x00, 0x00, 0x00,
 0x01, 0x00, 0x00, 0x00, 0xc2, 0xff, 0xff, 0xff, 0x00, 0x00, 0x00, 0x01,
 0x10, 0x00, 0x00, 0x00, 0x10, 0x00, 0x00, 0x00, 0x03, 0x00, 0x00, 0x00,
 0x1c, 0x00, 0x00, 0x00, 0x48, 0xff, 0xff, 0xff, 0x0f, 0x00, 0x00, 0x00,
 0x61, 0x72, 0x69, 0x74, 0x68, 0x2e, 0x63, 0x6f, 0x6e, 0x73, 0x74, 0x61,
 0x6e, 0x74, 0x31, 0x00, 0x02, 0x00, 0x00, 0x00, 0x08, 0x00, 0x00, 0x00,
 0x10, 0x00, 0x00, 0x00, 0x00, 0x00, 0x16, 0x00, 0x18, 0x00, 0x14, 0x00,
 0x00, 0x00, 0x10, 0x00, 0x0c, 0x00, 0x08, 0x00, 0x00, 0x00, 0x00, 0x00,
 0x00, 0x00, 0x07, 0x00, 0x16, 0x00, 0x00, 0x00, 0x00, 0x00, 0x00, 0x01,
 0x10, 0x00, 0x00, 0x00, 0x10, 0x00, 0x00, 0x00, 0x02, 0x00, 0x00, 0x00,
 0x1c, 0x00, 0x00, 0x00, 0x9c, 0xff, 0xff, 0xff, 0x0e, 0x00, 0x00, 0x00,
 0x61, 0x72, 0x69, 0x74, 0x68, 0x2e, 0x63, 0x6f, 0x6e, 0x73, 0x74, 0x61,
 0x6e, 0x74, 0x00, 0x00, 0x02, 0x00, 0x00, 0x00, 0x01, 0x00, 0x00, 0x00,
 0x08, 0x00, 0x00, 0x00, 0x00, 0x00, 0x16, 0x00, 0x1c, 0x00, 0x18, 0x00,
 0x00, 0x00, 0x14, 0x00, 0x10, 0x00, 0x0c, 0x00, 0x00, 0x00, 0x00, 0x00,
 0x08, 0x00, 0x07, 0x00, 0x16, 0x00, 0x00, 0x00, 0x00, 0x00, 0x00, 0x01,
 0x14, 0x00, 0x00, 0x00, 0x20, 0x00, 0x00, 0x00, 0x20, 0x00, 0x00, 0x00,
 0x01, 0x00, 0x00, 0x00, 0x3c, 0x00, 0x00, 0x00, 0x02, 0x00, 0x00, 0x00,
 0xff, 0xff, 0xff, 0xff, 0x10, 0x00, 0x00, 0x00, 0x04, 0x00, 0x04, 0x00,
 0x04, 0x00, 0x00, 0x00, 0x1e, 0x00, 0x00, 0x00, 0x73, 0x65, 0x72, 0x76,
 0x69, 0x6e, 0x67, 0x5f, 0x64, 0x65, 0x66, 0x61, 0x75, 0x6c, 0x74, 0x5f,
 0x6b, 0x65, 0x72, 0x61, 0x73, 0x5f, 0x74, 0x65, 0x6e, 0x73, 0x6f, 0x72,
 0x3a, 0x30, 0x00, 0x00, 0x02, 0x00, 0x00, 0x00, 0x01, 0x00, 0x00, 0x00,
 0x10, 0x00, 0x00, 0x00, 0x01, 0x00, 0x00, 0x00, 0x10, 0x00, 0x00, 0x00,
 0x0c, 0x00, 0x0c, 0x00, 0x0b, 0x00, 0x00, 0x00, 0x00, 0x00, 0x04, 0x00,
 0x0c, 0x00, 0x00, 0x00, 0x09, 0x00, 0x00, 0x00, 0x00, 0x00, 0x00, 0x09,

};
unsigned int model_tflite_len = 3552;
