unsigned char model22_tflite[] = {
 0x1c, 0x00, 0x00, 0x00, 0x54, 0x46, 0x4c, 0x33, 0x14, 0x00, 0x20, 0x00,
 0x1c, 0x00, 0x18, 0x00, 0x14, 0x00, 0x10, 0x00, 0x0c, 0x00, 0x00, 0x00,
 0x08, 0x00, 0x04, 0x00, 0x14, 0x00, 0x00, 0x00, 0x1c, 0x00, 0x00, 0x00,
 0x98, 0x00, 0x00, 0x00, 0xf0, 0x00, 0x00, 0x00, 0x94, 0x08, 0x00, 0x00,
 0xa4, 0x08, 0x00, 0x00, 0x8c, 0x0d, 0x00, 0x00, 0x03, 0x00, 0x00, 0x00,
 0x01, 0x00, 0x00, 0x00, 0x10, 0x00, 0x00, 0x00, 0x00, 0x00, 0x0a, 0x00,
 0x10, 0x00, 0x0c, 0x00, 0x08, 0x00, 0x04, 0x00, 0x0a, 0x00, 0x00, 0x00,
 0x0c, 0x00, 0x00, 0x00, 0x1c, 0x00, 0x00, 0x00, 0x3c, 0x00, 0x00, 0x00,
 0x0f, 0x00, 0x00, 0x00, 0x73, 0x65, 0x72, 0x76, 0x69, 0x6e, 0x67, 0x5f,
 0x64, 0x65, 0x66, 0x61, 0x75, 0x6c, 0x74, 0x00, 0x01, 0x00, 0x00, 0x00,
 0x04, 0x00, 0x00, 0x00, 0x90, 0xff, 0xff, 0xff, 0x09, 0x00, 0x00, 0x00,
 0x04, 0x00, 0x00, 0x00, 0x08, 0x00, 0x00, 0x00, 0x6f, 0x75, 0x74, 0x70,
 0x75, 0x74, 0x5f, 0x30, 0x00, 0x00, 0x00, 0x00, 0x01, 0x00, 0x00, 0x00,
 0x04, 0x00, 0x00, 0x00, 0x1a, 0xf8, 0xff, 0xff, 0x04, 0x00, 0x00, 0x00,
 0x0c, 0x00, 0x00, 0x00, 0x6b, 0x65, 0x72, 0x61, 0x73, 0x5f, 0x74, 0x65,
 0x6e, 0x73, 0x6f, 0x72, 0x00, 0x00, 0x00, 0x00, 0x02, 0x00, 0x00, 0x00,
 0x34, 0x00, 0x00, 0x00, 0x04, 0x00, 0x00, 0x00, 0xdc, 0xff, 0xff, 0xff,
 0x0c, 0x00, 0x00, 0x00, 0x04, 0x00, 0x00, 0x00, 0x13, 0x00, 0x00, 0x00,
 0x43, 0x4f, 0x4e, 0x56, 0x45, 0x52, 0x53, 0x49, 0x4f, 0x4e, 0x5f, 0x4d,
 0x45, 0x54, 0x41, 0x44, 0x41, 0x54, 0x41, 0x00, 0x08, 0x00, 0x0c, 0x00,
 0x08, 0x00, 0x04, 0x00, 0x08, 0x00, 0x00, 0x00, 0x0b, 0x00, 0x00, 0x00,
 0x04, 0x00, 0x00, 0x00, 0x13, 0x00, 0x00, 0x00, 0x6d, 0x69, 0x6e, 0x5f,
 0x72, 0x75, 0x6e, 0x74, 0x69, 0x6d, 0x65, 0x5f, 0x76, 0x65, 0x72, 0x73,
 0x69, 0x6f, 0x6e, 0x00, 0x0d, 0x00, 0x00, 0x00, 0xa0, 0x07, 0x00, 0x00,
 0x98, 0x07, 0x00, 0x00, 0x68, 0x07, 0x00, 0x00, 0x50, 0x05, 0x00, 0x00,
 0x3c, 0x05, 0x00, 0x00, 0x0c, 0x05, 0x00, 0x00, 0xbc, 0x04, 0x00, 0x00,
 0xac, 0x00, 0x00, 0x00, 0xa4, 0x00, 0x00, 0x00, 0x9c, 0x00, 0x00, 0x00,
 0x94, 0x00, 0x00, 0x00, 0x74, 0x00, 0x00, 0x00, 0x04, 0x00, 0x00, 0x00,
 0xca, 0xf8, 0xff, 0xff, 0x04, 0x00, 0x00, 0x00, 0x60, 0x00, 0x00, 0x00,
 0x10, 0x00, 0x00, 0x00, 0x00, 0x00, 0x00, 0x00, 0x08, 0x00, 0x0e, 0x00,
 0x08, 0x00, 0x04, 0x00, 0x08, 0x00, 0x00, 0x00, 0x10, 0x00, 0x00, 0x00,
 0x24, 0x00, 0x00, 0x00, 0x00, 0x00, 0x06, 0x00, 0x08, 0x00, 0x04, 0x00,
 0x06, 0x00, 0x00, 0x00, 0x04, 0x00, 0x00, 0x00, 0x00, 0x00, 0x00, 0x00,
 0x0c, 0x00, 0x18, 0x00, 0x14, 0x00, 0x10, 0x00, 0x0c, 0x00, 0x04, 0x00,
 0x0c, 0x00, 0x00, 0x00, 0x18, 0x25, 0x27, 0xee, 0xc1, 0xf7, 0xff, 0x86,
 0x02, 0x00, 0x00, 0x00, 0x02, 0x00, 0x00, 0x00, 0x04, 0x00, 0x00, 0x00,
 0x06, 0x00, 0x00, 0x00, 0x32, 0x2e, 0x31, 0x38, 0x2e, 0x30, 0x00, 0x00,
 0x36, 0xf9, 0xff, 0xff, 0x04, 0x00, 0x00, 0x00, 0x10, 0x00, 0x00, 0x00,
 0x31, 0x2e, 0x35, 0x2e, 0x30, 0x00, 0x00, 0x00, 0x00, 0x00, 0x00, 0x00,
 0x00, 0x00, 0x00, 0x00, 0x50, 0xf4, 0xff, 0xff, 0x54, 0xf4, 0xff, 0xff,
 0x58, 0xf4, 0xff, 0xff, 0x5e, 0xf9, 0xff, 0xff, 0x04, 0x00, 0x00, 0x00,
 0x00, 0x04, 0x00, 0x00, 0x3d, 0x50, 0xc2, 0x3e, 0x42, 0x94, 0x2c, 0x3e,
 0xb2, 0x01, 0x65, 0x3e, 0x3b, 0x61, 0xb6, 0x3e, 0x6c, 0x8f, 0x91, 0xbe,
 0xa6, 0x56, 0x9b, 0x3e, 0x88, 0x0e, 0x06, 0xbd, 0xc9, 0x2e, 0x82, 0x3e,
 0x3a, 0xc5, 0x8c, 0xbe, 0xf8, 0xbe, 0x91, 0xbd, 0xc1, 0x11, 0xcf, 0xbd,
 0x2f, 0x46, 0x8b, 0x3e, 0x83, 0x1e, 0xba, 0xbe, 0xd5, 0x39, 0x78, 0xbe,
 0xe3, 0xc0, 0x97, 0x3e, 0xb5, 0xb7, 0x81, 0xbc, 0x4d, 0x6b, 0x7a, 0xbd,
 0x93, 0xa2, 0x88, 0x3e, 0x60, 0x13, 0xc5, 0x3c, 0xc0, 0x52, 0x87, 0xbc,
 0xad, 0x13, 0x87, 0x3e, 0xdc, 0xd5, 0x86, 0xbd, 0xbb, 0xec, 0x85, 0x3e,
 0x80, 0x59, 0xbd, 0xbd, 0x80, 0xb5, 0x11, 0xbc, 0x4f, 0x18, 0x46, 0xbe,
 0x86, 0xff, 0xba, 0x3e, 0xb9, 0x1e, 0x8d, 0xbe, 0x95, 0x19, 0x8e, 0x3e,
 0xc2, 0x56, 0x03, 0x3e, 0x70, 0x4e, 0xc6, 0xbc, 0x76, 0x51, 0xc8, 0x3d,
 0x32, 0x2c, 0x26, 0xbe, 0xdf, 0xbb, 0x5e, 0xbe, 0xbe, 0xec, 0xdb, 0xbe,
 0x12, 0xe9, 0x23, 0xbe, 0x58, 0x75, 0x26, 0xbe, 0xd8, 0xc0, 0xdb, 0xbd,
 0x30, 0xa7, 0xef, 0xbc, 0x43, 0xf6, 0xdc, 0xbe, 0xd9, 0x2c, 0xd3, 0x3e,
 0xae, 0xbc, 0xd3, 0xbe, 0xd8, 0x9b, 0xa6, 0xbe, 0xea, 0xa7, 0x11, 0xbe,
 0x24, 0xfb, 0xe1, 0x3d, 0x83, 0x31, 0xb8, 0x3e, 0x11, 0xf7, 0xa1, 0x3e,
 0x2e, 0xc2, 0x0f, 0xbe, 0x1c, 0xe5, 0x4b, 0xbe, 0x1b, 0x96, 0xc5, 0x3e,
 0xeb, 0x98, 0x3f, 0xbe, 0x54, 0xe7, 0xd2, 0x3d, 0x07, 0xfb, 0xca, 0x3e,
 0xa8, 0x3d, 0x19, 0x3d, 0x9e, 0xb1, 0x15, 0x3e, 0x9e, 0xd6, 0x18, 0x3e,
 0x98, 0x20, 0x67, 0xbd, 0x27, 0x1a, 0x9d, 0x3e, 0x46, 0x07, 0x1d, 0xbe,
 0xb0, 0xd0, 0xb1, 0xbc, 0x87, 0xbb, 0xbe, 0x3e, 0x1b, 0xd5, 0x9d, 0xbe,
 0x22, 0xa3, 0x0d, 0xbe, 0x20, 0xc1, 0x2e, 0x3c, 0x6f, 0x91, 0x8b, 0x3e,
 0xa6, 0x43, 0x1b, 0x3e, 0xee, 0x49, 0x9a, 0xbe, 0x7e, 0xa3, 0x13, 0x3e,
 0x36, 0x77, 0xd1, 0xbe, 0xd2, 0x74, 0xcb, 0xbe, 0x88, 0x2d, 0xc7, 0xbe,
 0x0a, 0x8a, 0x66, 0x3e, 0xd6, 0xa9, 0x8f, 0xbe, 0x02, 0x36, 0x65, 0x3e,
 0x88, 0x70, 0x97, 0xbd, 0x93, 0x70, 0xc3, 0x3e, 0x7a, 0xf8, 0x83, 0xbe,
 0xd1, 0xa6, 0xba, 0xbe, 0xed, 0x79, 0x6a, 0xbe, 0x02, 0x1c, 0x85, 0x3e,
 0xf5, 0x16, 0xf0, 0x3e, 0x3c, 0x51, 0xb8, 0xbd, 0x7f, 0x89, 0x84, 0x3e,
 0xe8, 0x11, 0x3b, 0xbd, 0x6a, 0xa9, 0x44, 0x3e, 0xd9, 0x0e, 0xdd, 0x3d,
 0xf3, 0xc4, 0x88, 0x3e, 0xf4, 0x20, 0x95, 0x3d, 0x7d, 0x36, 0xbf, 0xbe,
 0xc7, 0xac, 0x77, 0xbe, 0x50, 0x77, 0x7c, 0x3e, 0x53, 0xa4, 0xc7, 0xbe,
 0x4d, 0xfa, 0xc1, 0xbe, 0xaa, 0x14, 0x44, 0x3e, 0xce, 0xbc, 0x32, 0x3e,
 0x22, 0x89, 0x47, 0x3e, 0x43, 0xca, 0xac, 0xbe, 0x2d, 0x80, 0x85, 0xbe,
 0x49, 0x8f, 0x8e, 0x3e, 0xf4, 0x3b, 0xa2, 0xbe, 0x18, 0x8b, 0x66, 0x3d,
 0x36, 0x4e, 0x72, 0x3e, 0xe1, 0x73, 0xd1, 0xbe, 0x5d, 0xf1, 0x4f, 0xbe,
 0xd4, 0x4e, 0x91, 0x3d, 0xfa, 0xeb, 0x0b, 0x3e, 0xdf, 0xed, 0xa0, 0xbe,
 0x2c, 0x80, 0x8d, 0x3d, 0x1c, 0x67, 0xde, 0xbd, 0x67, 0xa6, 0xb4, 0x3e,
 0x1b, 0xb3, 0x87, 0xbe, 0x8f, 0x4a, 0x4a, 0xbe, 0x8e, 0x39, 0xfe, 0xbd,
 0x0a, 0x63, 0xb0, 0xbe, 0xe0, 0x7d, 0x4e, 0x3d, 0x2c, 0x2f, 0xbb, 0xbe,
 0xb6, 0x94, 0x7f, 0x3e, 0x2a, 0x77, 0xe9, 0x3e, 0xaa, 0xec, 0x2d, 0x3e,
 0x36, 0x52, 0x2a, 0x3e, 0x08, 0x33, 0xa4, 0xbe, 0x72, 0x6a, 0xaf, 0xbe,
 0x78, 0x9f, 0x91, 0xbd, 0xc8, 0xe0, 0x34, 0xbe, 0x80, 0x60, 0x17, 0x3c,
 0x34, 0xa9, 0xae, 0xbe, 0xb0, 0xe8, 0x69, 0xbd, 0xc7, 0x67, 0x82, 0x3c,
 0xbe, 0x05, 0xd9, 0xbe, 0x89, 0xa2, 0xa7, 0xbe, 0xb7, 0x42, 0x85, 0x3e,
 0x87, 0x02, 0xd4, 0xbe, 0x8e, 0x79, 0x94, 0xbe, 0x94, 0x82, 0xd2, 0x3d,
 0x20, 0x16, 0x5e, 0x3d, 0xb0, 0x52, 0x39, 0xbe, 0xe7, 0xfc, 0xa7, 0x3e,
 0xc4, 0x9e, 0x28, 0xbe, 0x14, 0xff, 0xb1, 0x3d, 0x16, 0x63, 0x7a, 0x3e,
 0x3f, 0x81, 0xc8, 0x3e, 0xb0, 0xaf, 0x4a, 0xbd, 0x20, 0x9c, 0x4b, 0xbd,
 0xd1, 0xa4, 0xe3, 0x3d, 0x4a, 0x88, 0x09, 0xbe, 0x28, 0x56, 0x09, 0xbd,
 0xf0, 0x5a, 0x10, 0xbd, 0xfa, 0x2d, 0x6f, 0x3e, 0x34, 0x82, 0xb1, 0x3d,
 0x30, 0x63, 0x4b, 0xbd, 0xb8, 0x7e, 0x7d, 0xbe, 0x1c, 0xa9, 0xc5, 0xbd,
 0x40, 0xad, 0x2a, 0xbd, 0x18, 0xb3, 0xc3, 0xbe, 0x48, 0x35, 0x72, 0xbe,
 0x2c, 0xb6, 0xb4, 0xbe, 0xb1, 0x05, 0x8b, 0x3e, 0xc0, 0xe4, 0x37, 0x3c,
 0x2e, 0x10, 0x7e, 0x3e, 0x80, 0x4d, 0xae, 0xbc, 0x7b, 0xd2, 0x02, 0x3e,
 0x1c, 0xb0, 0x35, 0xbe, 0x4c, 0x39, 0xfa, 0x3d, 0x25, 0x7c, 0xce, 0x3e,
 0x98, 0xf2, 0xb6, 0xbd, 0x6d, 0x57, 0xf6, 0x3e, 0x17, 0xe8, 0x83, 0x3e,
 0x59, 0xa3, 0xba, 0x3e, 0x2a, 0x15, 0x4d, 0xbe, 0x1b, 0x68, 0x75, 0xbe,
 0xc5, 0xab, 0x59, 0xbe, 0x33, 0x7a, 0x95, 0x3e, 0x2c, 0xcf, 0x9b, 0x3d,
 0xbf, 0x0b, 0xc0, 0xbe, 0xc4, 0x68, 0x9b, 0x3d, 0x32, 0xba, 0xf1, 0xbd,
 0x74, 0x27, 0x75, 0xbe, 0x4b, 0x1e, 0xaf, 0x3e, 0xec, 0x0b, 0x9e, 0xbe,
 0x22, 0x1f, 0x11, 0xbe, 0x86, 0x6b, 0x4a, 0x3e, 0x01, 0x79, 0xb6, 0xbe,
 0xc4, 0xdb, 0xbd, 0x3d, 0xbc, 0x0e, 0xba, 0x3d, 0x84, 0x39, 0xcc, 0xbd,
 0x98, 0x83, 0x70, 0xbd, 0x94, 0x7d, 0xa5, 0xbd, 0xbc, 0x77, 0xe5, 0x3d,
 0x74, 0x67, 0xc8, 0xbd, 0xd5, 0x6c, 0x59, 0xbe, 0xc2, 0x91, 0x00, 0x3e,
 0xe6, 0x6d, 0xaa, 0xbe, 0xae, 0xef, 0x3f, 0x3e, 0xcc, 0x34, 0xbd, 0x3d,
 0x46, 0xd6, 0x45, 0x3e, 0x9f, 0x41, 0x9d, 0x3e, 0xfd, 0xc5, 0xad, 0x3e,
 0xd6, 0x57, 0x34, 0x3e, 0x32, 0x5d, 0x76, 0x3e, 0x30, 0x04, 0xae, 0xbd,
 0x60, 0x92, 0xe3, 0x3c, 0x3f, 0x1b, 0xdb, 0xbe, 0x1e, 0x87, 0x62, 0xbe,
 0xb4, 0x5b, 0xb1, 0xbd, 0xc0, 0x6b, 0x96, 0x3b, 0x20, 0xf2, 0x29, 0x3c,
 0xac, 0x68, 0xdd, 0xbe, 0xfc, 0xdc, 0xb8, 0xbe, 0x1c, 0x8b, 0xad, 0x3d,
 0xd0, 0xa9, 0xeb, 0xbd, 0x43, 0x79, 0xd3, 0xbe, 0x70, 0x90, 0x62, 0x3d,
 0x38, 0xd5, 0x64, 0x3d, 0x92, 0x67, 0xf3, 0xbd, 0xbf, 0x54, 0x4c, 0xbe,
 0xb4, 0x67, 0x98, 0x3d, 0x6c, 0x0e, 0x37, 0xbe, 0xa1, 0x10, 0xbf, 0x3e,
 0x86, 0x0a, 0xec, 0x3e, 0xdc, 0xd8, 0xaf, 0x3d, 0xa2, 0xb9, 0x76, 0x3e,
 0x2f, 0x87, 0x96, 0x3e, 0x5f, 0x9a, 0x8f, 0xbe, 0x63, 0xa7, 0xa5, 0x3e,
 0x2e, 0xf7, 0xc7, 0xbe, 0x26, 0x31, 0x96, 0xbe, 0x36, 0x89, 0x94, 0xbe,
 0x3d, 0x94, 0x4f, 0xbe, 0x18, 0xf5, 0x2f, 0xbe, 0xcd, 0x93, 0xc9, 0xbe,
 0x29, 0xfb, 0x91, 0x3e, 0xe4, 0xb9, 0xfc, 0x3d, 0xba, 0x30, 0x0e, 0xbe,
 0xa1, 0xcf, 0xba, 0x3e, 0x18, 0x47, 0x9e, 0x3e, 0xa0, 0x40, 0x23, 0xbc,
 0xa6, 0xca, 0x4d, 0x3e, 0xcc, 0x45, 0x26, 0xbe, 0x00, 0xfb, 0xc5, 0xba,
 0xfb, 0x64, 0x26, 0xbe, 0x77, 0x8b, 0x93, 0x3e, 0x2e, 0x7e, 0x0a, 0x3e,
 0xa5, 0x96, 0x9e, 0x3e, 0xb7, 0x3b, 0xc2, 0x3e, 0xc0, 0x67, 0x3b, 0xbe,
 0x66, 0x47, 0x28, 0x3e, 0x49, 0x90, 0xa5, 0xbe, 0x18, 0x39, 0x13, 0xbd,
 0xfa, 0xc4, 0x1f, 0x3e, 0x0e, 0x3a, 0x60, 0x3e, 0x4a, 0xd8, 0x96, 0xbe,
 0x84, 0x91, 0xa8, 0x3d, 0x90, 0x12, 0xdb, 0xbd, 0xb1, 0x44, 0xa4, 0x3e,
 0xbb, 0xbf, 0xdc, 0xbe, 0xd0, 0x64, 0x00, 0x3d, 0x6a, 0xfd, 0xff, 0xff,
 0x04, 0x00, 0x00, 0x00, 0x40, 0x00, 0x00, 0x00, 0xcf, 0x2c, 0x49, 0xbd,
 0x82, 0x06, 0x4a, 0x3d, 0x00, 0x00, 0x00, 0x00, 0x00, 0x00, 0x00, 0x00,
 0xb8, 0x01, 0x6b, 0xbc, 0x0d, 0x84, 0x5d, 0x3d, 0x00, 0x00, 0x00, 0x00,
 0xbd, 0x0b, 0x73, 0x3d, 0x8a, 0xae, 0x05, 0xbd, 0x00, 0x00, 0x00, 0x00,
 0xfd, 0xcd, 0x57, 0x3d, 0x00, 0x00, 0x00, 0x00, 0x00, 0x00, 0x00, 0x00,
 0xc7, 0x18, 0x58, 0x3d, 0xb0, 0x8b, 0x00, 0xbd, 0x00, 0x00, 0x00, 0x00,
 0xb6, 0xfd, 0xff, 0xff, 0x04, 0x00, 0x00, 0x00, 0x20, 0x00, 0x00, 0x00,
 0x00, 0x00, 0x00, 0x00, 0x00, 0x00, 0x00, 0x00, 0x00, 0x00, 0x00, 0x00,
 0xd8, 0xb2, 0x69, 0x3d, 0x82, 0x22, 0x4f, 0x3d, 0xdd, 0x6c, 0x65, 0x3d,
 0x18, 0xb1, 0x29, 0xbd, 0xff, 0x09, 0x62, 0x3d, 0xe2, 0xfd, 0xff, 0xff,
 0x04, 0x00, 0x00, 0x00, 0x04, 0x00, 0x00, 0x00, 0x20, 0xa6, 0x4c, 0x3d,
 0xf2, 0xfd, 0xff, 0xff, 0x04, 0x00, 0x00, 0x00, 0x00, 0x02, 0x00, 0x00,
 0x08, 0xd8, 0x99, 0x3e, 0x40, 0x0d, 0xdf, 0xbd, 0xb0, 0xe7, 0xc6, 0xbd,
 0xe4, 0x73, 0xf9, 0x3e, 0xe0, 0x5d, 0x5d, 0x3d, 0x58, 0x80, 0x98, 0x3e,
 0xf8, 0x4d, 0xcf, 0x3e, 0x8c, 0xfc, 0xf1, 0xbe, 0x4c, 0x11, 0xf7, 0xbe,
 0x80, 0xa0, 0xec, 0xbc, 0xfc, 0x97, 0xe4, 0xbe, 0x84, 0x4b, 0xc4, 0x3e,
 0x10, 0x16, 0xd9, 0xbd, 0x00, 0x76, 0xb2, 0x3b, 0xa0, 0xe3, 0xc6, 0xbe,
 0x24, 0xbd, 0x93, 0x3e, 0x50, 0xd9, 0x8e, 0x3d, 0xe0, 0x64, 0x34, 0xbd,
 0x30, 0x35, 0xb5, 0x3e, 0xe8, 0xd0, 0x1a, 0xbe, 0x80, 0x03, 0xb6, 0x3c,
 0x40, 0xd8, 0x14, 0xbe, 0x88, 0x54, 0x3a, 0x3e, 0xfc, 0x60, 0xaf, 0x3e,
 0x98, 0xf3, 0x0f, 0xbe, 0x88, 0xb0, 0xd7, 0x3e, 0xd0, 0x94, 0xbc, 0xbd,
 0xf0, 0x49, 0x48, 0x3e, 0x48, 0x3e, 0xe0, 0xbe, 0x64, 0x63, 0xba, 0xbe,
 0x0c, 0x07, 0xc0, 0x3e, 0x60, 0x18, 0x43, 0xbd, 0x80, 0xdd, 0x0c, 0x3d,
 0xa4, 0xd7, 0xd1, 0xbe, 0xec, 0xd4, 0xfc, 0x3e, 0x7c, 0xec, 0xf7, 0xbe,
 0x3c, 0xf1, 0x81, 0x3e, 0xd0, 0x75, 0xd5, 0xbe, 0x00, 0xa4, 0x2d, 0xbb,
 0xd8, 0xd2, 0xdc, 0xbe, 0xf0, 0x9d, 0x60, 0x3e, 0x94, 0x7f, 0x88, 0xbe,
 0x18, 0xa2, 0x5b, 0x3e, 0xd0, 0xa6, 0x9d, 0x3d, 0xa0, 0x22, 0x25, 0x3d,
 0x94, 0x3e, 0xf4, 0xbe, 0x48, 0xbb, 0x77, 0xbe, 0x40, 0xcb, 0x92, 0x3d,
 0xa6, 0xaf, 0xba, 0xbe, 0x1c, 0x55, 0xdb, 0xbe, 0x48, 0xba, 0x3a, 0x3e,
 0xd0, 0x24, 0x80, 0xbe, 0x60, 0x07, 0x2e, 0x3e, 0x93, 0x3c, 0x02, 0x3f,
 0x28, 0x5d, 0x9c, 0x3e, 0x38, 0xca, 0x13, 0x3d, 0xb4, 0x63, 0xc3, 0xbe,
 0x00, 0x78, 0x21, 0xbc, 0x4e, 0x7a, 0xad, 0x3e, 0x8c, 0xcf, 0x8d, 0xbe,
 0x10, 0xb2, 0xda, 0xbe, 0xfc, 0x83, 0xaf, 0x3e, 0xd9, 0x4e, 0xd4, 0x3e,
 0xe0, 0x67, 0xba, 0x3e, 0xf6, 0x58, 0xde, 0xbe, 0xfd, 0x7e, 0x9d, 0x3e,
 0x84, 0xd5, 0x90, 0x3e, 0x80, 0x4f, 0x4f, 0x3e, 0xb2, 0x89, 0xca, 0x3e,
 0x36, 0xa7, 0xa4, 0x3d, 0x94, 0x53, 0x89, 0x3e, 0x43, 0x86, 0xfe, 0x3e,
 0xcf, 0x40, 0x2d, 0x3d, 0x0c, 0x7d, 0xde, 0xbe, 0x01, 0xd6, 0x0a, 0x3f,
 0xf4, 0x29, 0xc8, 0x3e, 0xf0, 0x1c, 0x51, 0x3e, 0xf4, 0x18, 0x9b, 0x3e,
 0xc3, 0x3c, 0xa7, 0xbe, 0x00, 0x13, 0x21, 0x3e, 0x83, 0xac, 0x33, 0xbe,
 0x2e, 0xc7, 0x11, 0x3e, 0xf0, 0xb1, 0x5a, 0xbe, 0xd8, 0x53, 0x9a, 0xbe,
 0x34, 0x42, 0xdc, 0xbe, 0xbb, 0x77, 0xca, 0x3e, 0x50, 0xcd, 0xef, 0xbd,
 0xe2, 0x7a, 0x26, 0x3c, 0x92, 0x83, 0xb1, 0x3e, 0x7c, 0xb8, 0xa3, 0x3e,
 0x48, 0x6c, 0xc7, 0x3e, 0x08, 0x41, 0x86, 0x3e, 0x00, 0x95, 0xb3, 0x3c,
 0xa3, 0xa1, 0xbf, 0xbe, 0x3b, 0x94, 0x80, 0x3e, 0xe0, 0x12, 0x72, 0x3e,
 0xa7, 0xa2, 0x8f, 0x3e, 0x53, 0x09, 0x21, 0xbe, 0x00, 0x96, 0x62, 0x3d,
 0x88, 0x5a, 0xa6, 0xbe, 0xab, 0x37, 0x9e, 0x3e, 0x68, 0x10, 0x45, 0xbe,
 0x38, 0xf8, 0x85, 0xbe, 0xfb, 0x75, 0x74, 0x3e, 0x5f, 0xd8, 0xcd, 0x3e,
 0x98, 0x49, 0x5f, 0xbe, 0x6c, 0x43, 0x16, 0xbe, 0x98, 0xee, 0xd4, 0xbe,
 0x18, 0xfa, 0x86, 0x3e, 0x14, 0xd9, 0x41, 0xbd, 0xf7, 0x51, 0x92, 0x3e,
 0x10, 0x86, 0xea, 0x3d, 0x9d, 0x88, 0xdc, 0xbe, 0x1d, 0x5f, 0x06, 0x3f,
 0x34, 0xb3, 0xad, 0xbe, 0x24, 0xd0, 0x8f, 0x3e, 0x93, 0xd1, 0xce, 0xbe,
 0x05, 0x47, 0x5a, 0xbe, 0x34, 0x30, 0x82, 0xbe, 0x4f, 0x00, 0xa9, 0xbe,
 0x04, 0xf4, 0xde, 0x3e, 0x10, 0x63, 0x97, 0x3d, 0xb8, 0xd1, 0x21, 0xbe,
 0x90, 0x31, 0x0d, 0xbe, 0x98, 0xad, 0x6c, 0x3e, 0xc4, 0xb1, 0xb0, 0x3e,
 0xaa, 0x03, 0xe7, 0xbe, 0x78, 0xfb, 0x6c, 0xbe, 0x00, 0x00, 0x06, 0x00,
 0x08, 0x00, 0x04, 0x00, 0x06, 0x00, 0x00, 0x00, 0x04, 0x00, 0x00, 0x00,
 0x20, 0x00, 0x00, 0x00, 0x6c, 0xef, 0x55, 0xbe, 0x40, 0xf0, 0x89, 0xbe,
 0x8a, 0x99, 0x29, 0xbf, 0xf6, 0x0a, 0x85, 0x3e, 0x3b, 0x7b, 0x15, 0x3f,
 0xb3, 0x47, 0xa5, 0x3e, 0x28, 0xee, 0x19, 0xbf, 0xaa, 0xff, 0x4b, 0x3e,
 0x30, 0xfb, 0xff, 0xff, 0x34, 0xfb, 0xff, 0xff, 0x0f, 0x00, 0x00, 0x00,
 0x4d, 0x4c, 0x49, 0x52, 0x20, 0x43, 0x6f, 0x6e, 0x76, 0x65, 0x72, 0x74,
 0x65, 0x64, 0x2e, 0x00, 0x01, 0x00, 0x00, 0x00, 0x14, 0x00, 0x00, 0x00,
 0x00, 0x00, 0x0e, 0x00, 0x18, 0x00, 0x14, 0x00, 0x10, 0x00, 0x0c, 0x00,
 0x08, 0x00, 0x04, 0x00, 0x0e, 0x00, 0x00, 0x00, 0x14, 0x00, 0x00, 0x00,
 0x1c, 0x00, 0x00, 0x00, 0xd8, 0x00, 0x00, 0x00, 0xdc, 0x00, 0x00, 0x00,
 0xe0, 0x00, 0x00, 0x00, 0x04, 0x00, 0x00, 0x00, 0x6d, 0x61, 0x69, 0x6e,
 0x00, 0x00, 0x00, 0x00, 0x03, 0x00, 0x00, 0x00, 0x80, 0x00, 0x00, 0x00,
 0x38, 0x00, 0x00, 0x00, 0x04, 0x00, 0x00, 0x00, 0x9a, 0xff, 0xff, 0xff,
 0x10, 0x00, 0x00, 0x00, 0x00, 0x00, 0x00, 0x08, 0x0c, 0x00, 0x00, 0x00,
 0x10, 0x00, 0x00, 0x00, 0xac, 0xfb, 0xff, 0xff, 0x01, 0x00, 0x00, 0x00,
 0x09, 0x00, 0x00, 0x00, 0x03, 0x00, 0x00, 0x00, 0x08, 0x00, 0x00, 0x00,
 0x01, 0x00, 0x00, 0x00, 0x03, 0x00, 0x00, 0x00, 0xca, 0xff, 0xff, 0xff,
 0x10, 0x00, 0x00, 0x00, 0x00, 0x00, 0x00, 0x08, 0x10, 0x00, 0x00, 0x00,
 0x14, 0x00, 0x00, 0x00, 0xba, 0xff, 0xff, 0xff, 0x00, 0x00, 0x00, 0x01,
 0x01, 0x00, 0x00, 0x00, 0x08, 0x00, 0x00, 0x00, 0x03, 0x00, 0x00, 0x00,
 0x07, 0x00, 0x00, 0x00, 0x02, 0x00, 0x00, 0x00, 0x04, 0x00, 0x00, 0x00,
 0x00, 0x00, 0x0e, 0x00, 0x16, 0x00, 0x00, 0x00, 0x10, 0x00, 0x0c, 0x00,
 0x0b, 0x00, 0x04, 0x00, 0x0e, 0x00, 0x00, 0x00, 0x18, 0x00, 0x00, 0x00,
 0x00, 0x00, 0x00, 0x08, 0x18, 0x00, 0x00, 0x00, 0x1c, 0x00, 0x00, 0x00,
 0x00, 0x00, 0x06, 0x00, 0x08, 0x00, 0x07, 0x00, 0x06, 0x00, 0x00, 0x00,
 0x00, 0x00, 0x00, 0x01, 0x01, 0x00, 0x00, 0x00, 0x07, 0x00, 0x00, 0x00,
 0x03, 0x00, 0x00, 0x00, 0x00, 0x00, 0x00, 0x00, 0x06, 0x00, 0x00, 0x00,
 0x05, 0x00, 0x00, 0x00, 0x01, 0x00, 0x00, 0x00, 0x09, 0x00, 0x00, 0x00,
 0x01, 0x00, 0x00, 0x00, 0x00, 0x00, 0x00, 0x00, 0x0a, 0x00, 0x00, 0x00,
 0x7c, 0x03, 0x00, 0x00, 0x24, 0x03, 0x00, 0x00, 0xcc, 0x02, 0x00, 0x00,
 0x90, 0x02, 0x00, 0x00, 0x34, 0x02, 0x00, 0x00, 0xdc, 0x01, 0x00, 0x00,
 0x90, 0x01, 0x00, 0x00, 0xfc, 0x00, 0x00, 0x00, 0x60, 0x00, 0x00, 0x00,
 0x04, 0x00, 0x00, 0x00, 0xc2, 0xfc, 0xff, 0xff, 0x00, 0x00, 0x00, 0x01,
 0x14, 0x00, 0x00, 0x00, 0x1c, 0x00, 0x00, 0x00, 0x1c, 0x00, 0x00, 0x00,
 0x0a, 0x00, 0x00, 0x00, 0x34, 0x00, 0x00, 0x00, 0x02, 0x00, 0x00, 0x00,
 0xff, 0xff, 0xff, 0xff, 0x01, 0x00, 0x00, 0x00, 0xac, 0xfc, 0xff, 0xff,
 0x1b, 0x00, 0x00, 0x00, 0x53, 0x74, 0x61, 0x74, 0x65, 0x66, 0x75, 0x6c,
 0x50, 0x61, 0x72, 0x74, 0x69, 0x74, 0x69, 0x6f, 0x6e, 0x65, 0x64, 0x43,
 0x61, 0x6c, 0x6c, 0x5f, 0x31, 0x3a, 0x30, 0x00, 0x02, 0x00, 0x00, 0x00,
 0x01, 0x00, 0x00, 0x00, 0x01, 0x00, 0x00, 0x00, 0x1a, 0xfd, 0xff, 0xff,
 0x00, 0x00, 0x00, 0x01, 0x14, 0x00, 0x00, 0x00, 0x1c, 0x00, 0x00, 0x00,
 0x1c, 0x00, 0x00, 0x00, 0x09, 0x00, 0x00, 0x00, 0x74, 0x00, 0x00, 0x00,
 0x02, 0x00, 0x00, 0x00, 0xff, 0xff, 0xff, 0xff, 0x08, 0x00, 0x00, 0x00,
 0x04, 0xfd, 0xff, 0xff, 0x58, 0x00, 0x00, 0x00, 0x73, 0x65, 0x71, 0x75,
 0x65, 0x6e, 0x74, 0x69, 0x61, 0x6c, 0x5f, 0x31, 0x2f, 0x64, 0x65, 0x6e,
 0x73, 0x65, 0x5f, 0x31, 0x5f, 0x32, 0x2f, 0x4d, 0x61, 0x74, 0x4d, 0x75,
 0x6c, 0x3b, 0x73, 0x65, 0x71, 0x75, 0x65, 0x6e, 0x74, 0x69, 0x61, 0x6c,
 0x5f, 0x31, 0x2f, 0x64, 0x65, 0x6e, 0x73, 0x65, 0x5f, 0x31, 0x5f, 0x32,
 0x2f, 0x52, 0x65, 0x6c, 0x75, 0x3b, 0x73, 0x65, 0x71, 0x75, 0x65, 0x6e,
 0x74, 0x69, 0x61, 0x6c, 0x5f, 0x31, 0x2f, 0x64, 0x65, 0x6e, 0x73, 0x65,
 0x5f, 0x31, 0x5f, 0x32, 0x2f, 0x42, 0x69, 0x61, 0x73, 0x41, 0x64, 0x64,
 0x00, 0x00, 0x00, 0x00, 0x02, 0x00, 0x00, 0x00, 0x01, 0x00, 0x00, 0x00,
 0x08, 0x00, 0x00, 0x00, 0xb2, 0xfd, 0xff, 0xff, 0x00, 0x00, 0x00, 0x01,
 0x14, 0x00, 0x00, 0x00, 0x1c, 0x00, 0x00, 0x00, 0x1c, 0x00, 0x00, 0x00,
 0x08, 0x00, 0x00, 0x00, 0x6c, 0x00, 0x00, 0x00, 0x02, 0x00, 0x00, 0x00,
 0xff, 0xff, 0xff, 0xff, 0x10, 0x00, 0x00, 0x00, 0x9c, 0xfd, 0xff, 0xff,
 0x52, 0x00, 0x00, 0x00, 0x73, 0x65, 0x71, 0x75, 0x65, 0x6e, 0x74, 0x69,
 0x61, 0x6c, 0x5f, 0x31, 0x2f, 0x64, 0x65, 0x6e, 0x73, 0x65, 0x5f, 0x31,
 0x2f, 0x4d, 0x61, 0x74, 0x4d, 0x75, 0x6c, 0x3b, 0x73, 0x65, 0x71, 0x75,
 0x65, 0x6e, 0x74, 0x69, 0x61, 0x6c, 0x5f, 0x31, 0x2f, 0x64, 0x65, 0x6e,
 0x73, 0x65, 0x5f, 0x31, 0x2f, 0x52, 0x65, 0x6c, 0x75, 0x3b, 0x73, 0x65,
 0x71, 0x75, 0x65, 0x6e, 0x74, 0x69, 0x61, 0x6c, 0x5f, 0x31, 0x2f, 0x64,
 0x65, 0x6e, 0x73, 0x65, 0x5f, 0x31, 0x2f, 0x42, 0x69, 0x61, 0x73, 0x41,
 0x64, 0x64, 0x00, 0x00, 0x02, 0x00, 0x00, 0x00, 0x01, 0x00, 0x00, 0x00,
 0x10, 0x00, 0x00, 0x00, 0x96, 0xfe, 0xff, 0xff, 0x00, 0x00, 0x00, 0x01,
 0x10, 0x00, 0x00, 0x00, 0x10, 0x00, 0x00, 0x00, 0x07, 0x00, 0x00, 0x00,
 0x28, 0x00, 0x00, 0x00, 0x1c, 0xfe, 0xff, 0xff, 0x1b, 0x00, 0x00, 0x00,
 0x73, 0x65, 0x71, 0x75, 0x65, 0x6e, 0x74, 0x69, 0x61, 0x6c, 0x5f, 0x31,
 0x2f, 0x64, 0x65, 0x6e, 0x73, 0x65, 0x5f, 0x31, 0x2f, 0x4d, 0x61, 0x74,
 0x4d, 0x75, 0x6c, 0x00, 0x02, 0x00, 0x00, 0x00, 0x10, 0x00, 0x00, 0x00,
 0x10, 0x00, 0x00, 0x00, 0xde, 0xfe, 0xff, 0xff, 0x00, 0x00, 0x00, 0x01,
 0x10, 0x00, 0x00, 0x00, 0x10, 0x00, 0x00, 0x00, 0x06, 0x00, 0x00, 0x00,
 0x38, 0x00, 0x00, 0x00, 0x64, 0xfe, 0xff, 0xff, 0x2b, 0x00, 0x00, 0x00,
 0x73, 0x65, 0x71, 0x75, 0x65, 0x6e, 0x74, 0x69, 0x61, 0x6c, 0x5f, 0x31,
 0x2f, 0x64, 0x65, 0x6e, 0x73, 0x65, 0x5f, 0x31, 0x2f, 0x42, 0x69, 0x61,
 0x73, 0x41, 0x64, 0x64, 0x2f, 0x52, 0x65, 0x61, 0x64, 0x56, 0x61, 0x72,
 0x69, 0x61, 0x62, 0x6c, 0x65, 0x4f, 0x70, 0x00, 0x01, 0x00, 0x00, 0x00,
 0x10, 0x00, 0x00, 0x00, 0x32, 0xff, 0xff, 0xff, 0x00, 0x00, 0x00, 0x01,
 0x10, 0x00, 0x00, 0x00, 0x10, 0x00, 0x00, 0x00, 0x05, 0x00, 0x00, 0x00,
 0x3c, 0x00, 0x00, 0x00, 0xb8, 0xfe, 0xff, 0xff, 0x2d, 0x00, 0x00, 0x00,
 0x73, 0x65, 0x71, 0x75, 0x65, 0x6e, 0x74, 0x69, 0x61, 0x6c, 0x5f, 0x31,
 0x2f, 0x64, 0x65, 0x6e, 0x73, 0x65, 0x5f, 0x31, 0x5f, 0x32, 0x2f, 0x42,
 0x69, 0x61, 0x73, 0x41, 0x64, 0x64, 0x2f, 0x52, 0x65, 0x61, 0x64, 0x56,
 0x61, 0x72, 0x69, 0x61, 0x62, 0x6c, 0x65, 0x4f, 0x70, 0x00, 0x00, 0x00,
 0x01, 0x00, 0x00, 0x00, 0x08, 0x00, 0x00, 0x00, 0x8a, 0xff, 0xff, 0xff,
 0x00, 0x00, 0x00, 0x01, 0x10, 0x00, 0x00, 0x00, 0x10, 0x00, 0x00, 0x00,
 0x04, 0x00, 0x00, 0x00, 0x1c, 0x00, 0x00, 0x00, 0x10, 0xff, 0xff, 0xff,
 0x0f, 0x00, 0x00, 0x00, 0x61, 0x72, 0x69, 0x74, 0x68, 0x2e, 0x63, 0x6f,
 0x6e, 0x73, 0x74, 0x61, 0x6e, 0x74, 0x32, 0x00, 0x01, 0x00, 0x00, 0x00,
 0x01, 0x00, 0x00, 0x00, 0xc2, 0xff, 0xff, 0xff, 0x00, 0x00, 0x00, 0x01,
 0x10, 0x00, 0x00, 0x00, 0x10, 0x00, 0x00, 0x00, 0x03, 0x00, 0x00, 0x00,
 0x1c, 0x00, 0x00, 0x00, 0x48, 0xff, 0xff, 0xff, 0x0f, 0x00, 0x00, 0x00,
 0x61, 0x72, 0x69, 0x74, 0x68, 0x2e, 0x63, 0x6f, 0x6e, 0x73, 0x74, 0x61,
 0x6e, 0x74, 0x31, 0x00, 0x02, 0x00, 0x00, 0x00, 0x08, 0x00, 0x00, 0x00,
 0x10, 0x00, 0x00, 0x00, 0x00, 0x00, 0x16, 0x00, 0x18, 0x00, 0x14, 0x00,
 0x00, 0x00, 0x10, 0x00, 0x0c, 0x00, 0x08, 0x00, 0x00, 0x00, 0x00, 0x00,
 0x00, 0x00, 0x07, 0x00, 0x16, 0x00, 0x00, 0x00, 0x00, 0x00, 0x00, 0x01,
 0x10, 0x00, 0x00, 0x00, 0x10, 0x00, 0x00, 0x00, 0x02, 0x00, 0x00, 0x00,
 0x1c, 0x00, 0x00, 0x00, 0x9c, 0xff, 0xff, 0xff, 0x0e, 0x00, 0x00, 0x00,
 0x61, 0x72, 0x69, 0x74, 0x68, 0x2e, 0x63, 0x6f, 0x6e, 0x73, 0x74, 0x61,
 0x6e, 0x74, 0x00, 0x00, 0x02, 0x00, 0x00, 0x00, 0x01, 0x00, 0x00, 0x00,
 0x08, 0x00, 0x00, 0x00, 0x00, 0x00, 0x16, 0x00, 0x1c, 0x00, 0x18, 0x00,
 0x00, 0x00, 0x14, 0x00, 0x10, 0x00, 0x0c, 0x00, 0x00, 0x00, 0x00, 0x00,
 0x08, 0x00, 0x07, 0x00, 0x16, 0x00, 0x00, 0x00, 0x00, 0x00, 0x00, 0x01,
 0x14, 0x00, 0x00, 0x00, 0x20, 0x00, 0x00, 0x00, 0x20, 0x00, 0x00, 0x00,
 0x01, 0x00, 0x00, 0x00, 0x3c, 0x00, 0x00, 0x00, 0x02, 0x00, 0x00, 0x00,
 0xff, 0xff, 0xff, 0xff, 0x10, 0x00, 0x00, 0x00, 0x04, 0x00, 0x04, 0x00,
 0x04, 0x00, 0x00, 0x00, 0x1e, 0x00, 0x00, 0x00, 0x73, 0x65, 0x72, 0x76,
 0x69, 0x6e, 0x67, 0x5f, 0x64, 0x65, 0x66, 0x61, 0x75, 0x6c, 0x74, 0x5f,
 0x6b, 0x65, 0x72, 0x61, 0x73, 0x5f, 0x74, 0x65, 0x6e, 0x73, 0x6f, 0x72,
 0x3a, 0x30, 0x00, 0x00, 0x02, 0x00, 0x00, 0x00, 0x01, 0x00, 0x00, 0x00,
 0x10, 0x00, 0x00, 0x00, 0x01, 0x00, 0x00, 0x00, 0x10, 0x00, 0x00, 0x00,
 0x0c, 0x00, 0x0c, 0x00, 0x0b, 0x00, 0x00, 0x00, 0x00, 0x00, 0x04, 0x00,
 0x0c, 0x00, 0x00, 0x00, 0x09, 0x00, 0x00, 0x00, 0x00, 0x00, 0x00, 0x09,

};
unsigned int model22_tflite_len = 3552;
