unsigned char model_tflite[] = {
 0x1c, 0x00, 0x00, 0x00, 0x54, 0x46, 0x4c, 0x33, 0x14, 0x00, 0x20, 0x00,
 0x1c, 0x00, 0x18, 0x00, 0x14, 0x00, 0x10, 0x00, 0x0c, 0x00, 0x00, 0x00,
 0x08, 0x00, 0x04, 0x00, 0x14, 0x00, 0x00, 0x00, 0x1c, 0x00, 0x00, 0x00,
 0x98, 0x00, 0x00, 0x00, 0xf0, 0x00, 0x00, 0x00, 0x94, 0x08, 0x00, 0x00,
 0xa4, 0x08, 0x00, 0x00, 0x8c, 0x0d, 0x00, 0x00, 0x03, 0x00, 0x00, 0x00,
 0x01, 0x00, 0x00, 0x00, 0x10, 0x00, 0x00, 0x00, 0x00, 0x00, 0x0a, 0x00,
 0x10, 0x00, 0x0c, 0x00, 0x08, 0x00, 0x04, 0x00, 0x0a, 0x00, 0x00, 0x00,
 0x0c, 0x00, 0x00, 0x00, 0x1c, 0x00, 0x00, 0x00, 0x3c, 0x00, 0x00, 0x00,
 0x0f, 0x00, 0x00, 0x00, 0x73, 0x65, 0x72, 0x76, 0x69, 0x6e, 0x67, 0x5f,
 0x64, 0x65, 0x66, 0x61, 0x75, 0x6c, 0x74, 0x00, 0x01, 0x00, 0x00, 0x00,
 0x04, 0x00, 0x00, 0x00, 0x90, 0xff, 0xff, 0xff, 0x09, 0x00, 0x00, 0x00,
 0x04, 0x00, 0x00, 0x00, 0x08, 0x00, 0x00, 0x00, 0x6f, 0x75, 0x74, 0x70,
 0x75, 0x74, 0x5f, 0x30, 0x00, 0x00, 0x00, 0x00, 0x01, 0x00, 0x00, 0x00,
 0x04, 0x00, 0x00, 0x00, 0x1a, 0xf8, 0xff, 0xff, 0x04, 0x00, 0x00, 0x00,
 0x0c, 0x00, 0x00, 0x00, 0x6b, 0x65, 0x72, 0x61, 0x73, 0x5f, 0x74, 0x65,
 0x6e, 0x73, 0x6f, 0x72, 0x00, 0x00, 0x00, 0x00, 0x02, 0x00, 0x00, 0x00,
 0x34, 0x00, 0x00, 0x00, 0x04, 0x00, 0x00, 0x00, 0xdc, 0xff, 0xff, 0xff,
 0x0c, 0x00, 0x00, 0x00, 0x04, 0x00, 0x00, 0x00, 0x13, 0x00, 0x00, 0x00,
 0x43, 0x4f, 0x4e, 0x56, 0x45, 0x52, 0x53, 0x49, 0x4f, 0x4e, 0x5f, 0x4d,
 0x45, 0x54, 0x41, 0x44, 0x41, 0x54, 0x41, 0x00, 0x08, 0x00, 0x0c, 0x00,
 0x08, 0x00, 0x04, 0x00, 0x08, 0x00, 0x00, 0x00, 0x0b, 0x00, 0x00, 0x00,
 0x04, 0x00, 0x00, 0x00, 0x13, 0x00, 0x00, 0x00, 0x6d, 0x69, 0x6e, 0x5f,
 0x72, 0x75, 0x6e, 0x74, 0x69, 0x6d, 0x65, 0x5f, 0x76, 0x65, 0x72, 0x73,
 0x69, 0x6f, 0x6e, 0x00, 0x0d, 0x00, 0x00, 0x00, 0xa0, 0x07, 0x00, 0x00,
 0x98, 0x07, 0x00, 0x00, 0x68, 0x07, 0x00, 0x00, 0x50, 0x05, 0x00, 0x00,
 0x3c, 0x05, 0x00, 0x00, 0x0c, 0x05, 0x00, 0x00, 0xbc, 0x04, 0x00, 0x00,
 0xac, 0x00, 0x00, 0x00, 0xa4, 0x00, 0x00, 0x00, 0x9c, 0x00, 0x00, 0x00,
 0x94, 0x00, 0x00, 0x00, 0x74, 0x00, 0x00, 0x00, 0x04, 0x00, 0x00, 0x00,
 0xca, 0xf8, 0xff, 0xff, 0x04, 0x00, 0x00, 0x00, 0x60, 0x00, 0x00, 0x00,
 0x10, 0x00, 0x00, 0x00, 0x00, 0x00, 0x00, 0x00, 0x08, 0x00, 0x0e, 0x00,
 0x08, 0x00, 0x04, 0x00, 0x08, 0x00, 0x00, 0x00, 0x10, 0x00, 0x00, 0x00,
 0x24, 0x00, 0x00, 0x00, 0x00, 0x00, 0x06, 0x00, 0x08, 0x00, 0x04, 0x00,
 0x06, 0x00, 0x00, 0x00, 0x04, 0x00, 0x00, 0x00, 0x00, 0x00, 0x00, 0x00,
 0x0c, 0x00, 0x18, 0x00, 0x14, 0x00, 0x10, 0x00, 0x0c, 0x00, 0x04, 0x00,
 0x0c, 0x00, 0x00, 0x00, 0x18, 0x25, 0x27, 0xee, 0xc1, 0xf7, 0xff, 0x86,
 0x02, 0x00, 0x00, 0x00, 0x02, 0x00, 0x00, 0x00, 0x04, 0x00, 0x00, 0x00,
 0x06, 0x00, 0x00, 0x00, 0x32, 0x2e, 0x31, 0x38, 0x2e, 0x30, 0x00, 0x00,
 0x36, 0xf9, 0xff, 0xff, 0x04, 0x00, 0x00, 0x00, 0x10, 0x00, 0x00, 0x00,
 0x31, 0x2e, 0x35, 0x2e, 0x30, 0x00, 0x00, 0x00, 0x00, 0x00, 0x00, 0x00,
 0x00, 0x00, 0x00, 0x00, 0x50, 0xf4, 0xff, 0xff, 0x54, 0xf4, 0xff, 0xff,
 0x58, 0xf4, 0xff, 0xff, 0x5e, 0xf9, 0xff, 0xff, 0x04, 0x00, 0x00, 0x00,
 0x00, 0x04, 0x00, 0x00, 0x7e, 0x2d, 0xe8, 0xbc, 0x44, 0xd5, 0x8e, 0x3d,
 0xeb, 0x55, 0xe5, 0xbc, 0x90, 0x1e, 0xe2, 0x3e, 0x86, 0x4b, 0x1a, 0x3e,
 0x88, 0x80, 0x9b, 0x3e, 0x00, 0x36, 0xcc, 0xbd, 0x29, 0x07, 0x6c, 0xbe,
 0xfd, 0x75, 0x39, 0x3f, 0xbd, 0xcb, 0xb2, 0x3e, 0xef, 0x75, 0x38, 0x3f,
 0x25, 0x1a, 0xc8, 0x3e, 0x2f, 0x54, 0x9c, 0x3e, 0x44, 0x80, 0xb5, 0x3d,
 0x7e, 0x54, 0xab, 0xbe, 0x12, 0xf2, 0xe3, 0xbc, 0x4b, 0xd2, 0x0e, 0x3f,
 0x00, 0x13, 0xa6, 0x3b, 0x58, 0xdc, 0x8e, 0x3e, 0x67, 0xb0, 0x14, 0xbe,
 0x63, 0xaa, 0xc4, 0x3e, 0x85, 0x74, 0x7d, 0x3e, 0x1b, 0x4a, 0xbc, 0x3e,
 0x46, 0x6b, 0x10, 0xbe, 0xd9, 0x8c, 0x7f, 0x3f, 0xf6, 0xdd, 0x32, 0x3e,
 0xba, 0x78, 0x0c, 0x3f, 0xe8, 0x79, 0x1d, 0x3d, 0xd9, 0x9a, 0xb6, 0x3e,
 0x9d, 0x94, 0x8e, 0x3e, 0x03, 0x10, 0xb1, 0x3e, 0x40, 0x1f, 0xbd, 0x3e,
 0xc7, 0xda, 0x9a, 0x3e, 0x11, 0x07, 0x97, 0x3e, 0xf6, 0x84, 0x3f, 0xbd,
 0xc2, 0x73, 0x21, 0x3f, 0xc2, 0x8d, 0x09, 0x3e, 0xb6, 0xb9, 0x14, 0x3f,
 0x42, 0xb1, 0x04, 0x3e, 0x30, 0x92, 0x93, 0x3c, 0xa3, 0x6a, 0x19, 0x3f,
 0x42, 0x4b, 0x57, 0x3e, 0xa1, 0xbb, 0xeb, 0x3e, 0x12, 0x25, 0x10, 0x3e,
 0x6d, 0x8f, 0x5e, 0x3f, 0x5f, 0x32, 0x60, 0xbe, 0xc0, 0xc9, 0xda, 0x3c,
 0xd2, 0x00, 0xf3, 0x3e, 0x93, 0x71, 0x7f, 0xbc, 0x98, 0x61, 0x85, 0x3d,
 0xf7, 0x92, 0x8f, 0xbe, 0x98, 0x9f, 0x40, 0xbd, 0x20, 0x74, 0xe8, 0xbd,
 0x97, 0x8c, 0x09, 0xbe, 0xd1, 0xf2, 0xc0, 0x3e, 0x11, 0xb3, 0xc0, 0x3e,
 0xc7, 0x76, 0x93, 0x3e, 0x86, 0x66, 0xbc, 0xbe, 0x8c, 0x1f, 0x1f, 0xbe,
 0x91, 0x73, 0xb6, 0x3e, 0xc5, 0x67, 0x2e, 0x3c, 0x9c, 0xda, 0xaa, 0xbd,
 0xd0, 0x68, 0xc6, 0xbc, 0x73, 0x71, 0x81, 0xbe, 0x4b, 0xac, 0xab, 0x3e,
 0xae, 0x17, 0x4e, 0x3e, 0x61, 0x0f, 0xe3, 0xbd, 0xe0, 0x19, 0x9c, 0x3e,
 0xb0, 0x08, 0x3d, 0xbe, 0xaf, 0xed, 0xb1, 0x3c, 0x72, 0xf4, 0x83, 0xbe,
 0x9d, 0x95, 0xb6, 0x3e, 0xe9, 0xd3, 0x72, 0x3f, 0x48, 0xe9, 0x22, 0x3d,
 0x17, 0xad, 0x0e, 0x3f, 0x18, 0xf6, 0xcf, 0xbd, 0xc7, 0xe5, 0x44, 0x3f,
 0xba, 0x96, 0xca, 0xbe, 0xfd, 0x09, 0xa6, 0xbe, 0xf4, 0xf3, 0x05, 0x3e,
 0x1f, 0x42, 0x78, 0x3e, 0x81, 0x4b, 0xc5, 0x3e, 0x9e, 0x61, 0x29, 0x3f,
 0xdf, 0xbe, 0x84, 0x3e, 0x57, 0xc5, 0xac, 0x3e, 0xb4, 0xa8, 0xc2, 0x3e,
 0x60, 0x07, 0x6e, 0xbd, 0x76, 0x52, 0x3d, 0xbe, 0x95, 0x11, 0x70, 0x3f,
 0xd0, 0x30, 0xe1, 0xbd, 0x25, 0xe5, 0x8b, 0x3f, 0xea, 0xed, 0xc2, 0xbe,
 0xfe, 0x52, 0x1a, 0x3f, 0xeb, 0x5d, 0x56, 0xbe, 0xac, 0xbd, 0xa8, 0xbe,
 0xed, 0x5d, 0xb0, 0x3e, 0xdb, 0xf5, 0xbd, 0x3e, 0x64, 0xbd, 0xc4, 0x3d,
 0x4c, 0xc0, 0xb8, 0xbe, 0xc0, 0x13, 0xf4, 0x3b, 0x5a, 0x60, 0x59, 0x3e,
 0xd0, 0x9c, 0x9f, 0xbc, 0x40, 0xfa, 0x1a, 0xbd, 0x88, 0xe8, 0xa2, 0xbd,
 0x94, 0x2a, 0xd1, 0x3d, 0x10, 0x0f, 0x40, 0xbd, 0xd8, 0x8a, 0xdb, 0xbe,
 0xd3, 0xf8, 0xb1, 0xbe, 0x34, 0xbd, 0xf1, 0xbd, 0xf8, 0x84, 0x57, 0x3d,
 0x06, 0xc4, 0x09, 0x3e, 0x50, 0x05, 0x67, 0x3d, 0x1e, 0xd3, 0x54, 0xbe,
 0xa8, 0xa2, 0x2f, 0xbe, 0x4e, 0xb1, 0x38, 0x3e, 0x00, 0xfb, 0xa6, 0x3c,
 0x00, 0x3f, 0x47, 0x3b, 0x78, 0xc3, 0xc6, 0xbe, 0x75, 0x8f, 0x92, 0x3e,
 0x65, 0x50, 0x88, 0x3e, 0x69, 0x9e, 0xaf, 0xbe, 0x51, 0xa2, 0xbc, 0x3e,
 0x68, 0x15, 0x47, 0xbe, 0x70, 0x26, 0x1d, 0x3d, 0x42, 0xa8, 0x42, 0x3e,
 0x40, 0x25, 0x94, 0xbd, 0x54, 0xc8, 0x80, 0xbe, 0xaa, 0x29, 0x25, 0x3e,
 0xf4, 0x4f, 0x84, 0x3e, 0xc4, 0x52, 0xb6, 0xbd, 0x11, 0x31, 0x41, 0x3f,
 0x96, 0x4a, 0xa0, 0x3e, 0x56, 0x46, 0x1d, 0x3e, 0xa8, 0xfa, 0x69, 0x3e,
 0x08, 0x6e, 0x30, 0xbd, 0x36, 0x4e, 0xba, 0xbe, 0xd3, 0x9c, 0x67, 0x3f,
 0x4c, 0x93, 0x94, 0xbd, 0x89, 0x61, 0x88, 0x3f, 0x09, 0x43, 0x91, 0xbe,
 0x53, 0x9f, 0xdc, 0x3e, 0xfe, 0x76, 0x68, 0xbe, 0x40, 0xd8, 0xd3, 0xbc,
 0xb7, 0x09, 0xf4, 0x3e, 0x63, 0xc2, 0x99, 0xbe, 0xce, 0x4e, 0x20, 0xbe,
 0x59, 0x4c, 0x39, 0x3f, 0x86, 0x5c, 0xd0, 0xbd, 0x60, 0xf0, 0xe5, 0xbc,
 0x05, 0x96, 0xcc, 0x3e, 0x00, 0xdc, 0x29, 0xbc, 0xe7, 0x2e, 0xcd, 0xbe,
 0x90, 0xcc, 0x7d, 0x3f, 0x20, 0x9b, 0x33, 0xbd, 0x62, 0xb2, 0x79, 0x3f,
 0xbe, 0x92, 0xb6, 0xbe, 0x19, 0x40, 0x67, 0x3f, 0x1e, 0x34, 0x21, 0x3e,
 0x60, 0xd4, 0x61, 0xbc, 0x1d, 0x72, 0x01, 0xbe, 0x45, 0xa2, 0xae, 0xbc,
 0xb0, 0xb2, 0x0e, 0x3d, 0xad, 0xca, 0x86, 0xbe, 0xb2, 0xc5, 0x93, 0xbe,
 0xd1, 0x67, 0xc5, 0xbe, 0x6e, 0x6d, 0x83, 0x3e, 0xc7, 0x4a, 0x4a, 0xbe,
 0x56, 0x8a, 0x91, 0xbe, 0x0a, 0x53, 0xe6, 0xbe, 0x10, 0xa1, 0xa2, 0x3c,
 0xa0, 0x17, 0x93, 0xbc, 0x0e, 0xb6, 0x9b, 0xbe, 0xdb, 0x50, 0x15, 0xbd,
 0x87, 0xe0, 0xc9, 0x3e, 0x80, 0x7c, 0x30, 0x3c, 0x87, 0x72, 0x97, 0x3e,
 0x12, 0xa3, 0x42, 0xbe, 0x97, 0xc3, 0xc3, 0x3e, 0xe1, 0x21, 0xd8, 0x3e,
 0x28, 0x68, 0x07, 0x3c, 0xbf, 0xa0, 0xa4, 0x3e, 0x79, 0xa7, 0x09, 0x3f,
 0x20, 0x0d, 0xe4, 0x3c, 0x8e, 0x3f, 0x56, 0xbe, 0xa9, 0xbe, 0x1b, 0x3f,
 0x30, 0x5c, 0xb6, 0x3c, 0xdf, 0x45, 0x57, 0x3f, 0x2f, 0xc2, 0xc0, 0x3e,
 0xcc, 0x62, 0x55, 0x3f, 0x2c, 0xd7, 0x8e, 0x3d, 0x9f, 0x02, 0xbf, 0x3e,
 0x8f, 0x1f, 0x87, 0xbe, 0xaa, 0x12, 0x1e, 0xbe, 0x24, 0xf1, 0xd6, 0xbe,
 0x53, 0x0d, 0x0e, 0x3e, 0xc4, 0xdd, 0xca, 0x3d, 0x70, 0xfa, 0x70, 0xbd,
 0xe8, 0x1c, 0x80, 0xbd, 0x80, 0x26, 0x09, 0xbb, 0x6e, 0xd9, 0x77, 0x3e,
 0x86, 0xc2, 0x41, 0x3e, 0xe4, 0x62, 0xa6, 0xbe, 0x2d, 0x17, 0xc4, 0xbe,
 0xa6, 0x2d, 0xac, 0xbe, 0x48, 0xe9, 0x96, 0xbe, 0x66, 0xec, 0x74, 0x3e,
 0x28, 0x0b, 0xc1, 0xbe, 0x53, 0xc4, 0x99, 0x3e, 0x6d, 0x93, 0xa0, 0x3e,
 0xdf, 0xcc, 0xda, 0xbe, 0xa0, 0x40, 0x4f, 0x3e, 0xb0, 0x0a, 0x0f, 0x3d,
 0x4d, 0x52, 0xda, 0x3e, 0x53, 0xc3, 0x6d, 0xbe, 0x08, 0xcc, 0xcd, 0xbe,
 0x58, 0x49, 0x1f, 0xbd, 0xd5, 0x1a, 0xa1, 0xbe, 0x4a, 0xbc, 0x69, 0x3e,
 0xe6, 0xea, 0xb9, 0xbe, 0x30, 0x86, 0x88, 0xbc, 0x25, 0x48, 0xba, 0x3d,
 0x91, 0xee, 0xac, 0x3e, 0x48, 0xc5, 0xc8, 0xbe, 0x79, 0xab, 0x81, 0x3e,
 0x5f, 0x9f, 0xea, 0x3e, 0xd2, 0x42, 0x7e, 0xbe, 0xc0, 0x75, 0xfa, 0xbe,
 0x46, 0x7a, 0x3d, 0xbe, 0xf6, 0x13, 0x28, 0xbe, 0x28, 0x70, 0x03, 0x3f,
 0x58, 0x4a, 0x89, 0xbd, 0x9d, 0x09, 0xb1, 0x3e, 0x3e, 0x70, 0xeb, 0xbc,
 0x88, 0x51, 0xeb, 0xbd, 0x26, 0x09, 0x76, 0x3c, 0x7e, 0x71, 0x7c, 0x3e,
 0xbb, 0xc6, 0x1f, 0xbe, 0x22, 0xc7, 0x39, 0x3e, 0x77, 0x1f, 0xc0, 0x3e,
 0x3c, 0x39, 0x02, 0x3e, 0x21, 0x95, 0xf2, 0x3e, 0xb7, 0xb0, 0xac, 0xbe,
 0x3d, 0xf4, 0x2a, 0x3f, 0xd2, 0x27, 0x3c, 0xbd, 0x30, 0xa8, 0xd0, 0xbe,
 0x1e, 0x41, 0x19, 0x3f, 0x28, 0x4e, 0xbd, 0xbe, 0x6a, 0x50, 0x69, 0x3e,
 0xd0, 0xa5, 0x59, 0x3f, 0xa8, 0x7c, 0x31, 0xbd, 0x6d, 0x9e, 0xe0, 0x3e,
 0xcc, 0x96, 0xf8, 0xbd, 0x46, 0xb1, 0x56, 0x3f, 0x42, 0x9e, 0xd8, 0xbe,
 0x31, 0x72, 0xa3, 0xbe, 0xd2, 0x88, 0x97, 0x3e, 0x6a, 0xfd, 0xff, 0xff,
 0x04, 0x00, 0x00, 0x00, 0x40, 0x00, 0x00, 0x00, 0x99, 0x36, 0x25, 0x3f,
 0xe0, 0xbc, 0x2f, 0x3f, 0x25, 0xee, 0x20, 0x3f, 0x3c, 0x2e, 0x09, 0xbe,
 0xd4, 0x32, 0x0d, 0x3f, 0x56, 0x07, 0x2e, 0x3f, 0x00, 0x00, 0x00, 0x00,
 0x00, 0x00, 0x00, 0x00, 0xd6, 0xf4, 0x2c, 0x3f, 0x44, 0xaf, 0x22, 0x3f,
 0xc9, 0xd5, 0xad, 0xbd, 0xbd, 0xdd, 0x32, 0x3f, 0x7b, 0x44, 0xa1, 0xbd,
 0xe2, 0x1d, 0x84, 0xbc, 0x3b, 0xa7, 0x73, 0xbc, 0x2f, 0xeb, 0x26, 0x3f,
 0xb6, 0xfd, 0xff, 0xff, 0x04, 0x00, 0x00, 0x00, 0x20, 0x00, 0x00, 0x00,
 0x7b, 0xb6, 0x2d, 0xbe, 0x97, 0xd0, 0xf0, 0x3e, 0xc3, 0x07, 0xfb, 0x3e,
 0x55, 0xa6, 0xf8, 0x3e, 0xf8, 0xcf, 0x03, 0x3f, 0x18, 0x78, 0xf4, 0x3e,
 0x00, 0x00, 0x00, 0x00, 0x00, 0x00, 0x00, 0x00, 0xe2, 0xfd, 0xff, 0xff,
 0x04, 0x00, 0x00, 0x00, 0x04, 0x00, 0x00, 0x00, 0xaf, 0x79, 0xd0, 0x3e,
 0xf2, 0xfd, 0xff, 0xff, 0x04, 0x00, 0x00, 0x00, 0x00, 0x02, 0x00, 0x00,
 0x6e, 0x50, 0xdd, 0xbd, 0x1b, 0xd9, 0x8d, 0xb9, 0x1c, 0xdc, 0x26, 0x3e,
 0x5b, 0x8e, 0x48, 0xbe, 0xcb, 0x58, 0x13, 0xbf, 0x8a, 0x86, 0x46, 0x3e,
 0x00, 0xfa, 0xc1, 0x3c, 0x00, 0x8b, 0xff, 0xbb, 0x29, 0xa9, 0xd0, 0xbd,
 0x3b, 0x92, 0x53, 0x3e, 0xbe, 0xb1, 0xd7, 0xbe, 0xc5, 0xf5, 0x0b, 0x3e,
 0xe8, 0x22, 0x0b, 0xbf, 0x8c, 0xf1, 0x9f, 0xbe, 0x8a, 0xfa, 0xd4, 0xbe,
 0x5b, 0xc5, 0x39, 0xbd, 0xe1, 0xf1, 0xe0, 0x3e, 0xae, 0xee, 0x07, 0x3f,
 0x35, 0x22, 0x1d, 0x3f, 0x53, 0x95, 0x6c, 0xbe, 0x83, 0x73, 0x87, 0x3f,
 0x97, 0xb9, 0x6d, 0x3f, 0x08, 0x71, 0x08, 0x3e, 0x60, 0x98, 0x7c, 0xbd,
 0xa5, 0x10, 0x79, 0x3f, 0xcf, 0x58, 0x14, 0x3f, 0x33, 0x36, 0x0a, 0x3d,
 0xc2, 0xf4, 0x36, 0x3f, 0xf8, 0xbb, 0x74, 0xbe, 0x48, 0xff, 0xb4, 0xbe,
 0x66, 0x85, 0xaf, 0xbe, 0xd6, 0x2c, 0x51, 0x3f, 0xbd, 0x5b, 0x00, 0x3f,
 0x87, 0x07, 0xcd, 0x3e, 0x37, 0xab, 0x80, 0x3f, 0xf1, 0xca, 0x3c, 0x3d,
 0x99, 0xe8, 0x69, 0x3f, 0x6f, 0x95, 0x5d, 0x3f, 0xe0, 0x11, 0x7d, 0x3e,
 0x9c, 0x26, 0xb7, 0x3e, 0x9d, 0xc9, 0x83, 0x3f, 0x5c, 0x49, 0x8e, 0x3e,
 0x18, 0x36, 0x7c, 0xbe, 0x3e, 0xb8, 0x8d, 0x3f, 0x50, 0xed, 0xb2, 0xbe,
 0xef, 0xdd, 0x9b, 0xbc, 0xd2, 0x73, 0xbb, 0xbe, 0x96, 0x7e, 0xec, 0x3d,
 0x8d, 0xff, 0x5a, 0x3f, 0x8b, 0x89, 0x3d, 0x3f, 0xde, 0x34, 0x3b, 0x3f,
 0x65, 0x00, 0x57, 0xbe, 0x10, 0x3e, 0x6e, 0x3f, 0x6d, 0x77, 0x3a, 0x3f,
 0xe0, 0x40, 0xf1, 0x3d, 0x00, 0xb9, 0x32, 0xbd, 0x69, 0x4a, 0x91, 0x3d,
 0x8e, 0x8d, 0x7b, 0x3f, 0x5d, 0x8d, 0xd5, 0xbd, 0xf4, 0x0b, 0xb7, 0x3e,
 0xb2, 0x09, 0x52, 0x3e, 0x82, 0xe8, 0x56, 0x3e, 0x80, 0x32, 0x0b, 0xbf,
 0x17, 0x87, 0xeb, 0x3e, 0xaf, 0x63, 0x47, 0x3f, 0xf9, 0x9b, 0x1e, 0x3f,
 0x00, 0xfd, 0x80, 0x3f, 0xfe, 0xfb, 0x0c, 0xbd, 0xf7, 0x46, 0x7d, 0x3f,
 0xc5, 0xae, 0x0a, 0x3f, 0x00, 0xa5, 0x4f, 0xbe, 0xbc, 0x7d, 0x9b, 0x3e,
 0xee, 0xab, 0x42, 0x3f, 0x05, 0xc6, 0x2d, 0x3f, 0x5f, 0x05, 0xdb, 0xbe,
 0xe3, 0x78, 0x40, 0x3f, 0x8c, 0x57, 0xb7, 0xbe, 0xc1, 0xcc, 0x11, 0x3e,
 0x40, 0xfb, 0x79, 0xbe, 0xa8, 0x41, 0x75, 0x3f, 0x32, 0x5f, 0x19, 0x3f,
 0x0a, 0x4e, 0x5b, 0x3f, 0xcb, 0xce, 0x65, 0x3f, 0x03, 0x3b, 0xd0, 0xbe,
 0x45, 0x2c, 0x84, 0x3f, 0x32, 0x59, 0xac, 0x3e, 0x7c, 0x76, 0xe6, 0x3e,
 0xd8, 0x83, 0x4d, 0xbe, 0xf5, 0xa4, 0xc7, 0x3e, 0x7b, 0xe0, 0x2b, 0x3f,
 0xa3, 0xa3, 0x03, 0xbe, 0x45, 0x9a, 0x90, 0x3f, 0x16, 0x34, 0x2f, 0xbe,
 0xee, 0x10, 0x33, 0xbe, 0xbf, 0x3a, 0x2f, 0xbe, 0xab, 0xc8, 0x69, 0x3f,
 0x70, 0x2a, 0x09, 0x3e, 0xc0, 0x04, 0xb3, 0x3c, 0x60, 0x9b, 0x61, 0x3e,
 0xa0, 0x65, 0xc7, 0x3e, 0x0c, 0x06, 0x84, 0xbe, 0x0c, 0x48, 0xc5, 0x3e,
 0x8c, 0xcc, 0xfb, 0xbe, 0xd8, 0xdc, 0x7c, 0x3e, 0xe8, 0x1a, 0x87, 0xbe,
 0x88, 0x6b, 0xd7, 0xbe, 0x04, 0x52, 0xe6, 0xbe, 0x40, 0xf9, 0x69, 0x3e,
 0xb8, 0x0a, 0x6e, 0x3e, 0x84, 0xc7, 0x80, 0x3e, 0x08, 0xaf, 0x9c, 0xbe,
 0x14, 0x3e, 0xbf, 0xbe, 0xfc, 0x73, 0x93, 0x3e, 0x80, 0xee, 0xb3, 0xbc,
 0xc8, 0xab, 0x5e, 0xbe, 0x80, 0x80, 0xce, 0x3c, 0x28, 0xd2, 0xf7, 0x3e,
 0xb8, 0x61, 0x32, 0xbe, 0xdc, 0x48, 0xe4, 0x3e, 0xb8, 0x0a, 0x03, 0x3e,
 0x08, 0xa4, 0xaa, 0xbe, 0xa0, 0x0d, 0x9c, 0xbd, 0x60, 0x5d, 0x75, 0x3e,
 0x20, 0xba, 0x9b, 0xbe, 0x94, 0xef, 0xf8, 0x3e, 0xc0, 0xf2, 0x89, 0xbc,
 0xb4, 0x8a, 0xc5, 0xbe, 0xb0, 0x1d, 0x68, 0xbe, 0x00, 0x00, 0x06, 0x00,
 0x08, 0x00, 0x04, 0x00, 0x06, 0x00, 0x00, 0x00, 0x04, 0x00, 0x00, 0x00,
 0x20, 0x00, 0x00, 0x00, 0x76, 0x7d, 0x1d, 0xbf, 0x6c, 0x2f, 0xae, 0x3f,
 0x2e, 0x11, 0x99, 0x3f, 0x0e, 0x6a, 0xb9, 0x3f, 0xb4, 0xff, 0x7f, 0x3f,
 0xa3, 0xf8, 0xb6, 0x3f, 0xc3, 0xe3, 0x13, 0xbf, 0x46, 0x1a, 0x10, 0xbf,
 0x30, 0xfb, 0xff, 0xff, 0x34, 0xfb, 0xff, 0xff, 0x0f, 0x00, 0x00, 0x00,
 0x4d, 0x4c, 0x49, 0x52, 0x20, 0x43, 0x6f, 0x6e, 0x76, 0x65, 0x72, 0x74,
 0x65, 0x64, 0x2e, 0x00, 0x01, 0x00, 0x00, 0x00, 0x14, 0x00, 0x00, 0x00,
 0x00, 0x00, 0x0e, 0x00, 0x18, 0x00, 0x14, 0x00, 0x10, 0x00, 0x0c, 0x00,
 0x08, 0x00, 0x04, 0x00, 0x0e, 0x00, 0x00, 0x00, 0x14, 0x00, 0x00, 0x00,
 0x1c, 0x00, 0x00, 0x00, 0xd8, 0x00, 0x00, 0x00, 0xdc, 0x00, 0x00, 0x00,
 0xe0, 0x00, 0x00, 0x00, 0x04, 0x00, 0x00, 0x00, 0x6d, 0x61, 0x69, 0x6e,
 0x00, 0x00, 0x00, 0x00, 0x03, 0x00, 0x00, 0x00, 0x80, 0x00, 0x00, 0x00,
 0x38, 0x00, 0x00, 0x00, 0x04, 0x00, 0x00, 0x00, 0x9a, 0xff, 0xff, 0xff,
 0x10, 0x00, 0x00, 0x00, 0x00, 0x00, 0x00, 0x08, 0x0c, 0x00, 0x00, 0x00,
 0x10, 0x00, 0x00, 0x00, 0xac, 0xfb, 0xff, 0xff, 0x01, 0x00, 0x00, 0x00,
 0x09, 0x00, 0x00, 0x00, 0x03, 0x00, 0x00, 0x00, 0x08, 0x00, 0x00, 0x00,
 0x01, 0x00, 0x00, 0x00, 0x03, 0x00, 0x00, 0x00, 0xca, 0xff, 0xff, 0xff,
 0x10, 0x00, 0x00, 0x00, 0x00, 0x00, 0x00, 0x08, 0x10, 0x00, 0x00, 0x00,
 0x14, 0x00, 0x00, 0x00, 0xba, 0xff, 0xff, 0xff, 0x00, 0x00, 0x00, 0x01,
 0x01, 0x00, 0x00, 0x00, 0x08, 0x00, 0x00, 0x00, 0x03, 0x00, 0x00, 0x00,
 0x07, 0x00, 0x00, 0x00, 0x02, 0x00, 0x00, 0x00, 0x04, 0x00, 0x00, 0x00,
 0x00, 0x00, 0x0e, 0x00, 0x16, 0x00, 0x00, 0x00, 0x10, 0x00, 0x0c, 0x00,
 0x0b, 0x00, 0x04, 0x00, 0x0e, 0x00, 0x00, 0x00, 0x18, 0x00, 0x00, 0x00,
 0x00, 0x00, 0x00, 0x08, 0x18, 0x00, 0x00, 0x00, 0x1c, 0x00, 0x00, 0x00,
 0x00, 0x00, 0x06, 0x00, 0x08, 0x00, 0x07, 0x00, 0x06, 0x00, 0x00, 0x00,
 0x00, 0x00, 0x00, 0x01, 0x01, 0x00, 0x00, 0x00, 0x07, 0x00, 0x00, 0x00,
 0x03, 0x00, 0x00, 0x00, 0x00, 0x00, 0x00, 0x00, 0x06, 0x00, 0x00, 0x00,
 0x05, 0x00, 0x00, 0x00, 0x01, 0x00, 0x00, 0x00, 0x09, 0x00, 0x00, 0x00,
 0x01, 0x00, 0x00, 0x00, 0x00, 0x00, 0x00, 0x00, 0x0a, 0x00, 0x00, 0x00,
 0x7c, 0x03, 0x00, 0x00, 0x24, 0x03, 0x00, 0x00, 0xcc, 0x02, 0x00, 0x00,
 0x90, 0x02, 0x00, 0x00, 0x34, 0x02, 0x00, 0x00, 0xdc, 0x01, 0x00, 0x00,
 0x90, 0x01, 0x00, 0x00, 0xfc, 0x00, 0x00, 0x00, 0x60, 0x00, 0x00, 0x00,
 0x04, 0x00, 0x00, 0x00, 0xc2, 0xfc, 0xff, 0xff, 0x00, 0x00, 0x00, 0x01,
 0x14, 0x00, 0x00, 0x00, 0x1c, 0x00, 0x00, 0x00, 0x1c, 0x00, 0x00, 0x00,
 0x0a, 0x00, 0x00, 0x00, 0x34, 0x00, 0x00, 0x00, 0x02, 0x00, 0x00, 0x00,
 0xff, 0xff, 0xff, 0xff, 0x01, 0x00, 0x00, 0x00, 0xac, 0xfc, 0xff, 0xff,
 0x1b, 0x00, 0x00, 0x00, 0x53, 0x74, 0x61, 0x74, 0x65, 0x66, 0x75, 0x6c,
 0x50, 0x61, 0x72, 0x74, 0x69, 0x74, 0x69, 0x6f, 0x6e, 0x65, 0x64, 0x43,
 0x61, 0x6c, 0x6c, 0x5f, 0x31, 0x3a, 0x30, 0x00, 0x02, 0x00, 0x00, 0x00,
 0x01, 0x00, 0x00, 0x00, 0x01, 0x00, 0x00, 0x00, 0x1a, 0xfd, 0xff, 0xff,
 0x00, 0x00, 0x00, 0x01, 0x14, 0x00, 0x00, 0x00, 0x1c, 0x00, 0x00, 0x00,
 0x1c, 0x00, 0x00, 0x00, 0x09, 0x00, 0x00, 0x00, 0x74, 0x00, 0x00, 0x00,
 0x02, 0x00, 0x00, 0x00, 0xff, 0xff, 0xff, 0xff, 0x08, 0x00, 0x00, 0x00,
 0x04, 0xfd, 0xff, 0xff, 0x58, 0x00, 0x00, 0x00, 0x73, 0x65, 0x71, 0x75,
 0x65, 0x6e, 0x74, 0x69, 0x61, 0x6c, 0x5f, 0x31, 0x2f, 0x64, 0x65, 0x6e,
 0x73, 0x65, 0x5f, 0x31, 0x5f, 0x32, 0x2f, 0x4d, 0x61, 0x74, 0x4d, 0x75,
 0x6c, 0x3b, 0x73, 0x65, 0x71, 0x75, 0x65, 0x6e, 0x74, 0x69, 0x61, 0x6c,
 0x5f, 0x31, 0x2f, 0x64, 0x65, 0x6e, 0x73, 0x65, 0x5f, 0x31, 0x5f, 0x32,
 0x2f, 0x52, 0x65, 0x6c, 0x75, 0x3b, 0x73, 0x65, 0x71, 0x75, 0x65, 0x6e,
 0x74, 0x69, 0x61, 0x6c, 0x5f, 0x31, 0x2f, 0x64, 0x65, 0x6e, 0x73, 0x65,
 0x5f, 0x31, 0x5f, 0x32, 0x2f, 0x42, 0x69, 0x61, 0x73, 0x41, 0x64, 0x64,
 0x00, 0x00, 0x00, 0x00, 0x02, 0x00, 0x00, 0x00, 0x01, 0x00, 0x00, 0x00,
 0x08, 0x00, 0x00, 0x00, 0xb2, 0xfd, 0xff, 0xff, 0x00, 0x00, 0x00, 0x01,
 0x14, 0x00, 0x00, 0x00, 0x1c, 0x00, 0x00, 0x00, 0x1c, 0x00, 0x00, 0x00,
 0x08, 0x00, 0x00, 0x00, 0x6c, 0x00, 0x00, 0x00, 0x02, 0x00, 0x00, 0x00,
 0xff, 0xff, 0xff, 0xff, 0x10, 0x00, 0x00, 0x00, 0x9c, 0xfd, 0xff, 0xff,
 0x52, 0x00, 0x00, 0x00, 0x73, 0x65, 0x71, 0x75, 0x65, 0x6e, 0x74, 0x69,
 0x61, 0x6c, 0x5f, 0x31, 0x2f, 0x64, 0x65, 0x6e, 0x73, 0x65, 0x5f, 0x31,
 0x2f, 0x4d, 0x61, 0x74, 0x4d, 0x75, 0x6c, 0x3b, 0x73, 0x65, 0x71, 0x75,
 0x65, 0x6e, 0x74, 0x69, 0x61, 0x6c, 0x5f, 0x31, 0x2f, 0x64, 0x65, 0x6e,
 0x73, 0x65, 0x5f, 0x31, 0x2f, 0x52, 0x65, 0x6c, 0x75, 0x3b, 0x73, 0x65,
 0x71, 0x75, 0x65, 0x6e, 0x74, 0x69, 0x61, 0x6c, 0x5f, 0x31, 0x2f, 0x64,
 0x65, 0x6e, 0x73, 0x65, 0x5f, 0x31, 0x2f, 0x42, 0x69, 0x61, 0x73, 0x41,
 0x64, 0x64, 0x00, 0x00, 0x02, 0x00, 0x00, 0x00, 0x01, 0x00, 0x00, 0x00,
 0x10, 0x00, 0x00, 0x00, 0x96, 0xfe, 0xff, 0xff, 0x00, 0x00, 0x00, 0x01,
 0x10, 0x00, 0x00, 0x00, 0x10, 0x00, 0x00, 0x00, 0x07, 0x00, 0x00, 0x00,
 0x28, 0x00, 0x00, 0x00, 0x1c, 0xfe, 0xff, 0xff, 0x1b, 0x00, 0x00, 0x00,
 0x73, 0x65, 0x71, 0x75, 0x65, 0x6e, 0x74, 0x69, 0x61, 0x6c, 0x5f, 0x31,
 0x2f, 0x64, 0x65, 0x6e, 0x73, 0x65, 0x5f, 0x31, 0x2f, 0x4d, 0x61, 0x74,
 0x4d, 0x75, 0x6c, 0x00, 0x02, 0x00, 0x00, 0x00, 0x10, 0x00, 0x00, 0x00,
 0x10, 0x00, 0x00, 0x00, 0xde, 0xfe, 0xff, 0xff, 0x00, 0x00, 0x00, 0x01,
 0x10, 0x00, 0x00, 0x00, 0x10, 0x00, 0x00, 0x00, 0x06, 0x00, 0x00, 0x00,
 0x38, 0x00, 0x00, 0x00, 0x64, 0xfe, 0xff, 0xff, 0x2b, 0x00, 0x00, 0x00,
 0x73, 0x65, 0x71, 0x75, 0x65, 0x6e, 0x74, 0x69, 0x61, 0x6c, 0x5f, 0x31,
 0x2f, 0x64, 0x65, 0x6e, 0x73, 0x65, 0x5f, 0x31, 0x2f, 0x42, 0x69, 0x61,
 0x73, 0x41, 0x64, 0x64, 0x2f, 0x52, 0x65, 0x61, 0x64, 0x56, 0x61, 0x72,
 0x69, 0x61, 0x62, 0x6c, 0x65, 0x4f, 0x70, 0x00, 0x01, 0x00, 0x00, 0x00,
 0x10, 0x00, 0x00, 0x00, 0x32, 0xff, 0xff, 0xff, 0x00, 0x00, 0x00, 0x01,
 0x10, 0x00, 0x00, 0x00, 0x10, 0x00, 0x00, 0x00, 0x05, 0x00, 0x00, 0x00,
 0x3c, 0x00, 0x00, 0x00, 0xb8, 0xfe, 0xff, 0xff, 0x2d, 0x00, 0x00, 0x00,
 0x73, 0x65, 0x71, 0x75, 0x65, 0x6e, 0x74, 0x69, 0x61, 0x6c, 0x5f, 0x31,
 0x2f, 0x64, 0x65, 0x6e, 0x73, 0x65, 0x5f, 0x31, 0x5f, 0x32, 0x2f, 0x42,
 0x69, 0x61, 0x73, 0x41, 0x64, 0x64, 0x2f, 0x52, 0x65, 0x61, 0x64, 0x56,
 0x61, 0x72, 0x69, 0x61, 0x62, 0x6c, 0x65, 0x4f, 0x70, 0x00, 0x00, 0x00,
 0x01, 0x00, 0x00, 0x00, 0x08, 0x00, 0x00, 0x00, 0x8a, 0xff, 0xff, 0xff,
 0x00, 0x00, 0x00, 0x01, 0x10, 0x00, 0x00, 0x00, 0x10, 0x00, 0x00, 0x00,
 0x04, 0x00, 0x00, 0x00, 0x1c, 0x00, 0x00, 0x00, 0x10, 0xff, 0xff, 0xff,
 0x0f, 0x00, 0x00, 0x00, 0x61, 0x72, 0x69, 0x74, 0x68, 0x2e, 0x63, 0x6f,
 0x6e, 0x73, 0x74, 0x61, 0x6e, 0x74, 0x32, 0x00, 0x01, 0x00, 0x00, 0x00,
 0x01, 0x00, 0x00, 0x00, 0xc2, 0xff, 0xff, 0xff, 0x00, 0x00, 0x00, 0x01,
 0x10, 0x00, 0x00, 0x00, 0x10, 0x00, 0x00, 0x00, 0x03, 0x00, 0x00, 0x00,
 0x1c, 0x00, 0x00, 0x00, 0x48, 0xff, 0xff, 0xff, 0x0f, 0x00, 0x00, 0x00,
 0x61, 0x72, 0x69, 0x74, 0x68, 0x2e, 0x63, 0x6f, 0x6e, 0x73, 0x74, 0x61,
 0x6e, 0x74, 0x31, 0x00, 0x02, 0x00, 0x00, 0x00, 0x08, 0x00, 0x00, 0x00,
 0x10, 0x00, 0x00, 0x00, 0x00, 0x00, 0x16, 0x00, 0x18, 0x00, 0x14, 0x00,
 0x00, 0x00, 0x10, 0x00, 0x0c, 0x00, 0x08, 0x00, 0x00, 0x00, 0x00, 0x00,
 0x00, 0x00, 0x07, 0x00, 0x16, 0x00, 0x00, 0x00, 0x00, 0x00, 0x00, 0x01,
 0x10, 0x00, 0x00, 0x00, 0x10, 0x00, 0x00, 0x00, 0x02, 0x00, 0x00, 0x00,
 0x1c, 0x00, 0x00, 0x00, 0x9c, 0xff, 0xff, 0xff, 0x0e, 0x00, 0x00, 0x00,
 0x61, 0x72, 0x69, 0x74, 0x68, 0x2e, 0x63, 0x6f, 0x6e, 0x73, 0x74, 0x61,
 0x6e, 0x74, 0x00, 0x00, 0x02, 0x00, 0x00, 0x00, 0x01, 0x00, 0x00, 0x00,
 0x08, 0x00, 0x00, 0x00, 0x00, 0x00, 0x16, 0x00, 0x1c, 0x00, 0x18, 0x00,
 0x00, 0x00, 0x14, 0x00, 0x10, 0x00, 0x0c, 0x00, 0x00, 0x00, 0x00, 0x00,
 0x08, 0x00, 0x07, 0x00, 0x16, 0x00, 0x00, 0x00, 0x00, 0x00, 0x00, 0x01,
 0x14, 0x00, 0x00, 0x00, 0x20, 0x00, 0x00, 0x00, 0x20, 0x00, 0x00, 0x00,
 0x01, 0x00, 0x00, 0x00, 0x3c, 0x00, 0x00, 0x00, 0x02, 0x00, 0x00, 0x00,
 0xff, 0xff, 0xff, 0xff, 0x10, 0x00, 0x00, 0x00, 0x04, 0x00, 0x04, 0x00,
 0x04, 0x00, 0x00, 0x00, 0x1e, 0x00, 0x00, 0x00, 0x73, 0x65, 0x72, 0x76,
 0x69, 0x6e, 0x67, 0x5f, 0x64, 0x65, 0x66, 0x61, 0x75, 0x6c, 0x74, 0x5f,
 0x6b, 0x65, 0x72, 0x61, 0x73, 0x5f, 0x74, 0x65, 0x6e, 0x73, 0x6f, 0x72,
 0x3a, 0x30, 0x00, 0x00, 0x02, 0x00, 0x00, 0x00, 0x01, 0x00, 0x00, 0x00,
 0x10, 0x00, 0x00, 0x00, 0x01, 0x00, 0x00, 0x00, 0x10, 0x00, 0x00, 0x00,
 0x0c, 0x00, 0x0c, 0x00, 0x0b, 0x00, 0x00, 0x00, 0x00, 0x00, 0x04, 0x00,
 0x0c, 0x00, 0x00, 0x00, 0x09, 0x00, 0x00, 0x00, 0x00, 0x00, 0x00, 0x09,

};
unsigned int model_tflite_len = 3552;
